#include "motion_model.h"

// We need to keep the data array aligned on some architectures.
#ifdef __has_attribute
#define HAVE_ATTRIBUTE(x) __has_attribute(x)
#else
#define HAVE_ATTRIBUTE(x) 0
#endif
#if HAVE_ATTRIBUTE(aligned) || (defined(__GNUC__) && !defined(__clang__))
#define DATA_ALIGN_ATTRIBUTE __attribute__((aligned(4)))
#else
#define DATA_ALIGN_ATTRIBUTE
#endif

const unsigned char g_model[] DATA_ALIGN_ATTRIBUTE = {
  0x1c, 0x00, 0x00, 0x00, 0x54, 0x46, 0x4c, 0x33, 0x14, 0x00, 0x20, 0x00,
  0x1c, 0x00, 0x18, 0x00, 0x14, 0x00, 0x10, 0x00, 0x0c, 0x00, 0x00, 0x00,
  0x08, 0x00, 0x04, 0x00, 0x14, 0x00, 0x00, 0x00, 0x1c, 0x00, 0x00, 0x00,
  0x98, 0x00, 0x00, 0x00, 0xf0, 0x00, 0x00, 0x00, 0x08, 0x18, 0x00, 0x00,
  0x18, 0x18, 0x00, 0x00, 0x14, 0x24, 0x00, 0x00, 0x03, 0x00, 0x00, 0x00,
  0x01, 0x00, 0x00, 0x00, 0x10, 0x00, 0x00, 0x00, 0x00, 0x00, 0x0a, 0x00,
  0x10, 0x00, 0x0c, 0x00, 0x08, 0x00, 0x04, 0x00, 0x0a, 0x00, 0x00, 0x00,
  0x0c, 0x00, 0x00, 0x00, 0x1c, 0x00, 0x00, 0x00, 0x3c, 0x00, 0x00, 0x00,
  0x0f, 0x00, 0x00, 0x00, 0x73, 0x65, 0x72, 0x76, 0x69, 0x6e, 0x67, 0x5f,
  0x64, 0x65, 0x66, 0x61, 0x75, 0x6c, 0x74, 0x00, 0x01, 0x00, 0x00, 0x00,
  0x04, 0x00, 0x00, 0x00, 0x90, 0xff, 0xff, 0xff, 0x0a, 0x00, 0x00, 0x00,
  0x04, 0x00, 0x00, 0x00, 0x08, 0x00, 0x00, 0x00, 0x6f, 0x75, 0x74, 0x70,
  0x75, 0x74, 0x5f, 0x30, 0x00, 0x00, 0x00, 0x00, 0x01, 0x00, 0x00, 0x00,
  0x04, 0x00, 0x00, 0x00, 0xde, 0xe7, 0xff, 0xff, 0x04, 0x00, 0x00, 0x00,
  0x0f, 0x00, 0x00, 0x00, 0x6b, 0x65, 0x72, 0x61, 0x73, 0x5f, 0x74, 0x65,
  0x6e, 0x73, 0x6f, 0x72, 0x5f, 0x31, 0x39, 0x00, 0x02, 0x00, 0x00, 0x00,
  0x34, 0x00, 0x00, 0x00, 0x04, 0x00, 0x00, 0x00, 0xdc, 0xff, 0xff, 0xff,
  0x0d, 0x00, 0x00, 0x00, 0x04, 0x00, 0x00, 0x00, 0x13, 0x00, 0x00, 0x00,
  0x43, 0x4f, 0x4e, 0x56, 0x45, 0x52, 0x53, 0x49, 0x4f, 0x4e, 0x5f, 0x4d,
  0x45, 0x54, 0x41, 0x44, 0x41, 0x54, 0x41, 0x00, 0x08, 0x00, 0x0c, 0x00,
  0x08, 0x00, 0x04, 0x00, 0x08, 0x00, 0x00, 0x00, 0x0c, 0x00, 0x00, 0x00,
  0x04, 0x00, 0x00, 0x00, 0x13, 0x00, 0x00, 0x00, 0x6d, 0x69, 0x6e, 0x5f,
  0x72, 0x75, 0x6e, 0x74, 0x69, 0x6d, 0x65, 0x5f, 0x76, 0x65, 0x72, 0x73,
  0x69, 0x6f, 0x6e, 0x00, 0x0e, 0x00, 0x00, 0x00, 0x14, 0x17, 0x00, 0x00,
  0x0c, 0x17, 0x00, 0x00, 0xe4, 0x16, 0x00, 0x00, 0x74, 0x16, 0x00, 0x00,
  0x24, 0x16, 0x00, 0x00, 0x14, 0x14, 0x00, 0x00, 0x84, 0x13, 0x00, 0x00,
  0xb4, 0x00, 0x00, 0x00, 0xac, 0x00, 0x00, 0x00, 0xa4, 0x00, 0x00, 0x00,
  0x9c, 0x00, 0x00, 0x00, 0x94, 0x00, 0x00, 0x00, 0x74, 0x00, 0x00, 0x00,
  0x04, 0x00, 0x00, 0x00, 0x92, 0xe8, 0xff, 0xff, 0x04, 0x00, 0x00, 0x00,
  0x60, 0x00, 0x00, 0x00, 0x0c, 0x00, 0x00, 0x00, 0x08, 0x00, 0x0e, 0x00,
  0x08, 0x00, 0x04, 0x00, 0x08, 0x00, 0x00, 0x00, 0x10, 0x00, 0x00, 0x00,
  0x28, 0x00, 0x00, 0x00, 0x00, 0x00, 0x06, 0x00, 0x08, 0x00, 0x04, 0x00,
  0x06, 0x00, 0x00, 0x00, 0x04, 0x00, 0x00, 0x00, 0x01, 0x00, 0x00, 0x00,
  0xeb, 0x03, 0x00, 0x00, 0x0c, 0x00, 0x18, 0x00, 0x14, 0x00, 0x10, 0x00,
  0x0c, 0x00, 0x04, 0x00, 0x0c, 0x00, 0x00, 0x00, 0x68, 0xd9, 0x1e, 0x14,
  0x39, 0x94, 0xa4, 0x67, 0x02, 0x00, 0x00, 0x00, 0x02, 0x00, 0x00, 0x00,
  0x04, 0x00, 0x00, 0x00, 0x06, 0x00, 0x00, 0x00, 0x32, 0x2e, 0x32, 0x30,
  0x2e, 0x30, 0x00, 0x00, 0xfe, 0xe8, 0xff, 0xff, 0x04, 0x00, 0x00, 0x00,
  0x10, 0x00, 0x00, 0x00, 0x31, 0x2e, 0x31, 0x34, 0x2e, 0x30, 0x00, 0x00,
  0x00, 0x00, 0x00, 0x00, 0x00, 0x00, 0x00, 0x00, 0xe8, 0xe8, 0xff, 0xff,
  0xec, 0xe8, 0xff, 0xff, 0xf0, 0xe8, 0xff, 0xff, 0xf4, 0xe8, 0xff, 0xff,
  0x2a, 0xe9, 0xff, 0xff, 0x04, 0x00, 0x00, 0x00, 0xc0, 0x12, 0x00, 0x00,
  0x7f, 0x16, 0x0f, 0x72, 0xea, 0xaf, 0x4a, 0xe8, 0x50, 0x39, 0xc6, 0x16,
  0x3a, 0x09, 0x4f, 0x02, 0xe9, 0x16, 0x0c, 0xef, 0xc1, 0x4c, 0xac, 0x25,
  0xe2, 0xca, 0xcb, 0xcc, 0xf9, 0x18, 0x2b, 0xe4, 0xe2, 0x1a, 0xfb, 0xed,
  0x36, 0x2a, 0xdf, 0xd7, 0x60, 0x1d, 0xee, 0x58, 0x3e, 0x19, 0x4f, 0xf7,
  0xae, 0x13, 0xc3, 0x3a, 0xd3, 0xd6, 0x0d, 0xde, 0x4c, 0x11, 0xd6, 0xec,
  0x33, 0xc1, 0xba, 0x4b, 0xd5, 0xc6, 0x71, 0x0e, 0xca, 0x67, 0xa0, 0x25,
  0x69, 0x1f, 0x5e, 0x09, 0xd0, 0x48, 0xe2, 0x2f, 0x2d, 0xf7, 0x55, 0x59,
  0x08, 0x12, 0xdf, 0xa7, 0x07, 0x15, 0x9b, 0x33, 0x3f, 0xc6, 0x05, 0xd1,
  0xf5, 0x07, 0x44, 0x16, 0x32, 0x1b, 0xc2, 0xd8, 0x34, 0x9f, 0xe1, 0xf4,
  0xe2, 0xcb, 0xf8, 0x3d, 0x00, 0xc9, 0x2a, 0x5d, 0x3e, 0x2b, 0x26, 0x28,
  0x3d, 0xef, 0xdb, 0x01, 0xc0, 0x4b, 0xe3, 0x39, 0x1a, 0xf3, 0x48, 0xe5,
  0xd3, 0xf7, 0x09, 0xff, 0x1f, 0xba, 0xa7, 0xee, 0x2f, 0x9b, 0x14, 0xb5,
  0xa6, 0x4c, 0x2b, 0x8a, 0x67, 0x2f, 0x5e, 0x15, 0x07, 0x4e, 0x00, 0x22,
  0x4f, 0x49, 0xbd, 0x09, 0x0a, 0x11, 0x06, 0xd5, 0x16, 0x53, 0xc1, 0xc0,
  0x18, 0xc2, 0x2f, 0x08, 0xee, 0xdf, 0x4e, 0xfc, 0xda, 0x07, 0xeb, 0xf1,
  0x3c, 0x98, 0x1c, 0xfb, 0xfc, 0x3f, 0x1e, 0xf8, 0xd4, 0xf8, 0xdb, 0xe0,
  0x04, 0x2b, 0x00, 0xc5, 0xea, 0x1e, 0xd6, 0x3b, 0x11, 0x3f, 0x29, 0x14,
  0xdd, 0x2d, 0xbb, 0x43, 0x0a, 0xef, 0xe4, 0x41, 0xb8, 0x00, 0xf6, 0xb6,
  0x2d, 0xb3, 0xec, 0x0f, 0xab, 0x40, 0x14, 0xd2, 0x1b, 0x0d, 0xc9, 0x32,
  0xdf, 0xed, 0xef, 0xf6, 0x1c, 0x11, 0x23, 0x05, 0x14, 0xff, 0xf5, 0xf5,
  0x17, 0x26, 0xfc, 0xe3, 0x11, 0x07, 0x39, 0xca, 0xec, 0x18, 0xef, 0xea,
  0xeb, 0xb7, 0xd9, 0x3c, 0x9f, 0xd2, 0xf0, 0x9d, 0x25, 0x37, 0x03, 0x03,
  0x38, 0xc4, 0x11, 0xf5, 0x1e, 0x5f, 0x29, 0x30, 0x7f, 0xde, 0xf8, 0x48,
  0xdf, 0x2f, 0x30, 0x12, 0x33, 0x63, 0x0b, 0x15, 0x37, 0xe8, 0x2e, 0xe8,
  0xbc, 0x5c, 0x12, 0xc2, 0x54, 0x18, 0xdf, 0x57, 0x08, 0xcd, 0x22, 0x4a,
  0xe2, 0x27, 0xe0, 0xa7, 0x38, 0x5f, 0x1b, 0xef, 0x3b, 0xbb, 0xc6, 0x07,
  0xeb, 0x41, 0x18, 0x18, 0x4e, 0x6a, 0xc9, 0x1e, 0x51, 0x13, 0xea, 0x3f,
  0x1b, 0xec, 0x6a, 0xcb, 0x4a, 0xda, 0xba, 0x60, 0x74, 0xb5, 0xc2, 0xe7,
  0x24, 0x22, 0x25, 0x15, 0x39, 0x5c, 0x33, 0x18, 0xed, 0xc6, 0x4c, 0x5d,
  0x28, 0xf7, 0x5f, 0xd2, 0xfb, 0x35, 0x16, 0x3b, 0x1b, 0xc5, 0xe4, 0xe7,
  0x1e, 0xba, 0xeb, 0xf7, 0x22, 0x51, 0xd7, 0x23, 0xbf, 0xe6, 0x31, 0x13,
  0x00, 0xb6, 0xd5, 0x1a, 0xcd, 0x57, 0x57, 0x9d, 0x0e, 0x20, 0xbf, 0x4f,
  0x41, 0x11, 0x6d, 0x35, 0x9e, 0x2c, 0x59, 0x9f, 0xf9, 0x72, 0x32, 0xb9,
  0x7b, 0xf9, 0x46, 0x5c, 0xe5, 0xb7, 0xf3, 0xe0, 0x54, 0x6f, 0x9f, 0xb9,
  0x1c, 0x93, 0x18, 0xdf, 0xb6, 0xbf, 0xf6, 0xc0, 0xcf, 0x1a, 0xe4, 0x1e,
  0x6f, 0xb0, 0xe9, 0x09, 0xe5, 0xf5, 0x19, 0xdb, 0xb8, 0x19, 0xc8, 0xf7,
  0xe1, 0xa4, 0x30, 0x01, 0xfc, 0x13, 0x1b, 0x8f, 0xe3, 0x27, 0xb2, 0x3e,
  0x46, 0x81, 0xbd, 0xda, 0xc8, 0xdc, 0xb0, 0xfe, 0x1c, 0xb9, 0x20, 0x52,
  0xfc, 0xa3, 0x07, 0x1c, 0x08, 0x38, 0xf6, 0xab, 0x1b, 0xe1, 0xf7, 0x26,
  0x20, 0xe1, 0x44, 0x09, 0xd8, 0x0e, 0xd2, 0x38, 0x5a, 0x62, 0x17, 0xe1,
  0xf9, 0xd5, 0x37, 0xf0, 0xd3, 0xd6, 0x4f, 0xf5, 0x51, 0x54, 0xfb, 0x0b,
  0xd0, 0xf8, 0x4d, 0x25, 0x17, 0x25, 0x07, 0x30, 0x1a, 0xd3, 0xd3, 0x02,
  0x2e, 0xc7, 0x03, 0x34, 0xba, 0x56, 0xc7, 0xbb, 0x1a, 0xbd, 0x33, 0x58,
  0x92, 0x1c, 0x26, 0xcd, 0x24, 0x14, 0xc4, 0x1e, 0x08, 0xf6, 0xf6, 0x36,
  0xdf, 0x0e, 0xf9, 0xbb, 0x18, 0x20, 0xb1, 0xbf, 0x21, 0x09, 0x42, 0xe1,
  0xbd, 0xe0, 0xeb, 0xc9, 0x13, 0x09, 0x9a, 0xfa, 0x3e, 0x8a, 0x24, 0xc3,
  0xf5, 0x42, 0x46, 0x00, 0xfc, 0x04, 0xe2, 0xfb, 0xd6, 0xbf, 0x57, 0xdc,
  0x92, 0xce, 0xec, 0xdf, 0x3d, 0x21, 0xeb, 0x40, 0xf7, 0xd3, 0x31, 0xbb,
  0x81, 0x12, 0x1a, 0xaa, 0xbc, 0x25, 0xfb, 0xf3, 0xb1, 0xb8, 0xcf, 0x24,
  0x93, 0xe5, 0xc2, 0xea, 0x01, 0xbd, 0xc9, 0x28, 0xce, 0xe5, 0x13, 0xde,
  0x4a, 0xb0, 0xea, 0x01, 0xf7, 0x0f, 0x53, 0xd9, 0x0a, 0xef, 0xd7, 0x08,
  0x21, 0xd9, 0xe2, 0x5b, 0xbd, 0xfb, 0x18, 0xd9, 0x09, 0x25, 0xdc, 0x01,
  0x3f, 0xb0, 0xf6, 0x0f, 0xfa, 0xfb, 0x15, 0xb9, 0x51, 0xd5, 0x0e, 0x4b,
  0xf4, 0xde, 0x50, 0x8c, 0x20, 0xcd, 0xd8, 0xe7, 0x45, 0x9c, 0x36, 0x18,
  0xeb, 0x10, 0xe7, 0xe3, 0xdc, 0xd6, 0x0a, 0x15, 0xc7, 0x14, 0x48, 0x2a,
  0x14, 0xdb, 0x2c, 0xea, 0xd2, 0xf7, 0x32, 0xce, 0x36, 0x43, 0xe8, 0x22,
  0x0e, 0x23, 0x1e, 0xff, 0xff, 0x38, 0x16, 0xe6, 0x2b, 0xe2, 0xeb, 0xc0,
  0xa5, 0x20, 0xcd, 0xbe, 0xf8, 0x20, 0xa5, 0xdf, 0xff, 0xb4, 0x4a, 0xee,
  0xfa, 0x21, 0xf7, 0x95, 0x5d, 0xf0, 0xd1, 0xe6, 0x40, 0xda, 0x03, 0x15,
  0x81, 0x13, 0xbd, 0xee, 0x30, 0x05, 0x9d, 0x15, 0xfe, 0x04, 0xd8, 0x23,
  0xfb, 0x27, 0x2a, 0x1a, 0xdf, 0xfe, 0xab, 0x23, 0x31, 0xb3, 0x20, 0xb6,
  0xa5, 0x51, 0xda, 0xc0, 0x0d, 0xc0, 0xbd, 0x04, 0xcf, 0x00, 0x02, 0xe6,
  0xd1, 0x58, 0x26, 0xc9, 0x3e, 0xee, 0xab, 0x1b, 0xf2, 0xa1, 0xf9, 0xfb,
  0x00, 0xe2, 0x70, 0x1f, 0x5c, 0x1d, 0xc6, 0xe2, 0x22, 0xfe, 0xb5, 0x56,
  0xd0, 0x41, 0xf5, 0xe6, 0xff, 0x68, 0x54, 0x2f, 0x24, 0x5e, 0xee, 0x0e,
  0xf9, 0x11, 0x6f, 0x0a, 0x02, 0x00, 0x0d, 0x49, 0x47, 0xf8, 0x0c, 0x1a,
  0xf2, 0xef, 0xe3, 0x10, 0xcb, 0x20, 0xf8, 0x15, 0x6b, 0x46, 0x26, 0xfc,
  0x3c, 0xb6, 0x0b, 0xe0, 0x07, 0x25, 0xa8, 0xb6, 0xdd, 0x28, 0xe3, 0x30,
  0x81, 0xbf, 0x16, 0xdc, 0xa6, 0x1f, 0xb0, 0xe1, 0x34, 0xe0, 0x03, 0xfa,
  0x9e, 0x2a, 0xd7, 0x2f, 0x1d, 0x4f, 0xdb, 0xb7, 0x58, 0xb0, 0x03, 0x42,
  0x20, 0xf9, 0x55, 0xb7, 0xab, 0xd7, 0x9f, 0x1d, 0x1e, 0xed, 0xf0, 0xd2,
  0xce, 0xb5, 0x4c, 0xb6, 0x0d, 0x33, 0x39, 0xf5, 0x31, 0xd8, 0xfc, 0x2f,
  0xab, 0xf6, 0x10, 0x2c, 0xe6, 0xb6, 0x2c, 0x24, 0x20, 0x0f, 0x27, 0xc3,
  0xd8, 0x98, 0xf3, 0xe8, 0x00, 0xb6, 0x94, 0xe4, 0x1e, 0xbf, 0x20, 0xe6,
  0x39, 0xd0, 0xab, 0x08, 0x9b, 0xd2, 0xbe, 0x86, 0xa9, 0x30, 0xa4, 0x13,
  0x5b, 0x1d, 0xed, 0x4c, 0xca, 0x1d, 0xca, 0xbd, 0x36, 0x10, 0xc4, 0x07,
  0x05, 0xec, 0xde, 0x3e, 0x0a, 0x4a, 0xef, 0x43, 0x03, 0xcf, 0x1d, 0xd4,
  0xc7, 0x3f, 0xe0, 0x05, 0x04, 0x15, 0x1d, 0x00, 0xc4, 0xc4, 0x62, 0xfb,
  0x2e, 0x2e, 0x1a, 0x36, 0x1e, 0x41, 0x1d, 0xca, 0x04, 0x20, 0x1f, 0x0d,
  0x67, 0xc4, 0x30, 0x42, 0xd7, 0x57, 0xf2, 0xd4, 0xe6, 0xdc, 0xed, 0xf4,
  0xca, 0xd8, 0x3e, 0xbc, 0x1a, 0x3b, 0x08, 0xe0, 0x1c, 0xb5, 0xe9, 0xec,
  0xc3, 0xf6, 0xaf, 0xdc, 0x07, 0xdf, 0xd3, 0xfb, 0x37, 0xd2, 0xdb, 0x22,
  0xad, 0xfe, 0x11, 0xb8, 0xeb, 0x27, 0x12, 0x1b, 0x38, 0x1f, 0xf5, 0x19,
  0xaa, 0xd5, 0x36, 0x06, 0x02, 0xbd, 0xd4, 0x38, 0xa7, 0x0f, 0x31, 0xfb,
  0xf0, 0x12, 0xef, 0xa6, 0x23, 0xe0, 0xb5, 0x09, 0x1c, 0xfa, 0xad, 0xd0,
  0xb0, 0xa8, 0xe4, 0xc5, 0xec, 0xd8, 0xb9, 0xb1, 0xbf, 0xdd, 0xf8, 0xd8,
  0x00, 0xda, 0xe4, 0x14, 0xd7, 0xad, 0xc4, 0x95, 0xdf, 0xb2, 0x9d, 0x24,
  0xd6, 0x81, 0x18, 0xe0, 0xc8, 0xaa, 0x29, 0x23, 0x08, 0xc2, 0x5c, 0x21,
  0x06, 0x5b, 0x19, 0xaf, 0x40, 0xdb, 0x0c, 0x67, 0xdd, 0xc9, 0xe3, 0x03,
  0x06, 0x18, 0x52, 0x19, 0xf4, 0x01, 0xc3, 0x23, 0xd5, 0x09, 0x03, 0x49,
  0xe9, 0x0b, 0x0f, 0xcd, 0x0b, 0x3f, 0x49, 0x36, 0xd8, 0xf7, 0xd5, 0xe2,
  0x46, 0x16, 0x4e, 0x0d, 0x09, 0x01, 0xd0, 0xd7, 0xeb, 0xdd, 0x45, 0x13,
  0x3d, 0xf3, 0x47, 0x50, 0xd5, 0xdb, 0xda, 0xd1, 0x15, 0xfc, 0x3c, 0x3b,
  0x29, 0x25, 0x15, 0xe5, 0xca, 0x17, 0xda, 0xcf, 0x45, 0x62, 0x14, 0xe4,
  0x2a, 0x03, 0x18, 0x3a, 0xda, 0x1b, 0xf1, 0xa9, 0x17, 0x61, 0x1f, 0x30,
  0x4b, 0xaa, 0xd4, 0x28, 0xfb, 0x03, 0x07, 0xe3, 0xbb, 0x31, 0xdf, 0xcb,
  0x38, 0xee, 0xd5, 0x56, 0x21, 0x2c, 0x59, 0xb0, 0xc1, 0x4b, 0xd4, 0xbb,
  0x52, 0x21, 0xde, 0x69, 0x1c, 0xf2, 0x0a, 0xc0, 0x2d, 0x79, 0xb6, 0x0d,
  0x2e, 0x08, 0x25, 0x3a, 0xb0, 0xd1, 0x37, 0xaf, 0xa1, 0x65, 0xe8, 0x01,
  0x14, 0xf1, 0xf5, 0x2e, 0x81, 0xb4, 0x22, 0x98, 0xfc, 0x54, 0xa3, 0xc9,
  0xba, 0x6f, 0xd7, 0x1b, 0x0e, 0x0d, 0xea, 0x71, 0xe6, 0xc3, 0x48, 0xf5,
  0xe0, 0x56, 0xf8, 0x8f, 0x00, 0x11, 0xa7, 0x52, 0x42, 0xa5, 0xff, 0xdc,
  0x9d, 0xdb, 0x04, 0xf0, 0xe4, 0x30, 0xbb, 0x2f, 0xdc, 0x07, 0x0a, 0xe6,
  0x04, 0x27, 0x35, 0xd4, 0xdc, 0xf7, 0x11, 0xb1, 0x17, 0x34, 0xf0, 0x1c,
  0x2e, 0xb5, 0x44, 0xf3, 0xd3, 0x1a, 0x2d, 0x13, 0x55, 0xe3, 0x3f, 0x23,
  0x2e, 0x3e, 0x5b, 0xfe, 0xef, 0xe3, 0x40, 0x45, 0x23, 0x16, 0x3c, 0x13,
  0x3b, 0xf3, 0x27, 0xd8, 0x2a, 0xd0, 0x1e, 0x18, 0xc9, 0x32, 0x27, 0x3e,
  0x22, 0xff, 0x14, 0xd9, 0x01, 0xdf, 0x32, 0xcf, 0x12, 0xeb, 0xe7, 0xed,
  0x1a, 0x27, 0xf0, 0x02, 0xc7, 0xf1, 0x58, 0x94, 0x32, 0xf7, 0xac, 0x18,
  0x37, 0xac, 0xcb, 0x3c, 0x11, 0x15, 0x0e, 0x10, 0xdd, 0x26, 0x08, 0x01,
  0x52, 0x1b, 0xd4, 0x06, 0x15, 0xeb, 0x5d, 0xbe, 0xfc, 0x47, 0xc0, 0x20,
  0xf2, 0x0c, 0x06, 0x00, 0xe2, 0xfb, 0x29, 0xd5, 0xb2, 0xfd, 0xe4, 0xb7,
  0x73, 0x81, 0xc0, 0x72, 0xc2, 0xb6, 0x58, 0x11, 0xe4, 0xe2, 0xf9, 0x9a,
  0xce, 0x4d, 0x33, 0x04, 0xfc, 0x06, 0x8f, 0x55, 0x91, 0xbb, 0x3c, 0x38,
  0x0e, 0x71, 0x3a, 0x07, 0x67, 0x61, 0x5f, 0x1d, 0xed, 0xe3, 0xdb, 0xf2,
  0x33, 0x81, 0xde, 0xa8, 0xdc, 0xc5, 0xe5, 0x82, 0xef, 0x01, 0x9f, 0xd0,
  0x2f, 0xdc, 0x4b, 0x26, 0x18, 0x3c, 0xd0, 0xc7, 0xd8, 0x16, 0xa4, 0xf7,
  0xec, 0x19, 0xf4, 0x0f, 0xe0, 0xe3, 0xfe, 0xb8, 0xdd, 0x00, 0xfb, 0x2f,
  0x79, 0xa5, 0xe4, 0x6c, 0xa0, 0xea, 0x14, 0x00, 0x17, 0xfb, 0xd2, 0xfd,
  0xd2, 0x53, 0xd6, 0xc5, 0xfc, 0x4f, 0x17, 0x68, 0xb5, 0xdb, 0x0a, 0x1b,
  0x9a, 0xe9, 0xba, 0xf1, 0x42, 0x0a, 0xe6, 0x4f, 0x37, 0xc5, 0xcf, 0x41,
  0xfa, 0x9f, 0xb2, 0x47, 0x8b, 0xe4, 0x3a, 0x9b, 0xec, 0x4e, 0xb7, 0x23,
  0x73, 0xfc, 0x38, 0x57, 0x3e, 0x34, 0xe8, 0xff, 0x6a, 0x10, 0x40, 0x65,
  0xd3, 0x6a, 0xf6, 0x20, 0x48, 0x46, 0x0c, 0x18, 0xfb, 0x60, 0x6a, 0x8d,
  0x08, 0x5b, 0x81, 0x3c, 0x4a, 0x15, 0x36, 0xbc, 0xa0, 0xf9, 0xd2, 0x29,
  0x58, 0x10, 0xee, 0xf3, 0x19, 0xd3, 0x43, 0x25, 0xd3, 0x69, 0x2a, 0x1c,
  0x14, 0x3b, 0xb2, 0x6c, 0x3e, 0xe3, 0x7b, 0x10, 0x36, 0x03, 0x9a, 0x27,
  0x77, 0xce, 0x2f, 0xe3, 0xaa, 0x11, 0xe6, 0xb0, 0xfd, 0xf8, 0x0a, 0xe1,
  0xc9, 0x21, 0xd4, 0xb2, 0x76, 0x29, 0xe5, 0x5d, 0x41, 0xc4, 0xff, 0x22,
  0x09, 0x58, 0xb9, 0x9f, 0x79, 0x08, 0xc7, 0x4e, 0xb1, 0x4e, 0x76, 0x18,
  0x2d, 0xff, 0xc6, 0x64, 0xb8, 0xfb, 0x50, 0xab, 0x25, 0x2b, 0xce, 0x3c,
  0xf3, 0x91, 0x37, 0x3f, 0xb2, 0x61, 0x12, 0x10, 0x3c, 0xdd, 0xe2, 0x0a,
  0x1c, 0xd5, 0xf2, 0xad, 0x41, 0xbd, 0x0f, 0xc3, 0xa9, 0xb8, 0xf6, 0xa9,
  0xbf, 0x18, 0xb2, 0xc3, 0xd3, 0x22, 0xa8, 0xc9, 0x30, 0x8d, 0xe7, 0x1b,
  0x20, 0xed, 0xef, 0xc0, 0x05, 0x1c, 0xd5, 0xde, 0x64, 0x05, 0xff, 0x34,
  0x47, 0xf2, 0x4b, 0xc4, 0xf9, 0x19, 0x22, 0x21, 0x4e, 0x03, 0x08, 0xe7,
  0x39, 0x95, 0xaf, 0x27, 0xf8, 0xf8, 0xc8, 0xe9, 0x2c, 0x1a, 0x81, 0x06,
  0x22, 0xfd, 0xce, 0x0d, 0x97, 0xa3, 0xab, 0xd9, 0x32, 0x1f, 0xee, 0x34,
  0x4d, 0xb9, 0xb7, 0x5b, 0xc0, 0x23, 0x10, 0xec, 0x6b, 0x0b, 0xe1, 0x53,
  0xce, 0x98, 0x01, 0xec, 0xe3, 0x2b, 0x3e, 0x2e, 0x62, 0xcf, 0x2d, 0xa9,
  0x19, 0x5f, 0x5e, 0x52, 0xef, 0x4d, 0x1d, 0x6c, 0x19, 0x05, 0xef, 0x0e,
  0x43, 0x55, 0x3d, 0x04, 0x20, 0x5b, 0xb9, 0x33, 0x3b, 0xd3, 0xf2, 0x47,
  0xc8, 0xd3, 0xe4, 0xe9, 0xd2, 0x38, 0x9b, 0x31, 0x4f, 0x15, 0x8f, 0x69,
  0x2d, 0x49, 0x6d, 0x97, 0xce, 0xc6, 0x13, 0xda, 0x5c, 0xe7, 0xc1, 0x22,
  0xf1, 0xbf, 0x71, 0x36, 0x05, 0xf9, 0x2c, 0xe6, 0x44, 0xde, 0xde, 0x13,
  0xbd, 0x2e, 0x3f, 0xe3, 0x81, 0xc2, 0x41, 0xa5, 0x4f, 0x18, 0x89, 0x58,
  0x3d, 0xb0, 0x07, 0x2e, 0xcf, 0xd5, 0xed, 0x38, 0x32, 0xe3, 0xfa, 0x74,
  0x08, 0xd7, 0x5b, 0x1f, 0xec, 0xf1, 0xa7, 0xe7, 0xeb, 0x32, 0x9d, 0x71,
  0xc4, 0x05, 0x72, 0x1b, 0xcf, 0x66, 0xeb, 0xe1, 0x6a, 0x05, 0x96, 0xca,
  0xf0, 0xe8, 0x1f, 0xd8, 0x82, 0xd9, 0x41, 0x01, 0x0a, 0xb1, 0xf0, 0x08,
  0xc3, 0x0c, 0xa5, 0xdf, 0x2e, 0xc9, 0xd2, 0xaf, 0xe0, 0x17, 0x98, 0x1f,
  0x18, 0x5f, 0x24, 0xa0, 0x2d, 0x54, 0x2e, 0x12, 0xe1, 0xe5, 0xb5, 0xea,
  0x3f, 0x47, 0x29, 0xa9, 0x6d, 0xd7, 0xa1, 0xe6, 0xee, 0x93, 0xd0, 0x62,
  0xc8, 0x1c, 0x34, 0xcf, 0xc0, 0x3c, 0xf6, 0xde, 0xb0, 0x69, 0x59, 0xbc,
  0x03, 0x9f, 0xa3, 0x46, 0xa8, 0xa3, 0xf1, 0x5d, 0xa6, 0xbd, 0xbb, 0xc6,
  0xb0, 0x1f, 0xa4, 0xd0, 0xa8, 0x81, 0xc7, 0xb9, 0xbe, 0xbb, 0x6c, 0x68,
  0xed, 0x17, 0xf4, 0xc4, 0x9f, 0xee, 0xbb, 0x69, 0x97, 0xeb, 0xb7, 0x9d,
  0xdc, 0x62, 0x5f, 0x55, 0xd1, 0x3f, 0x5d, 0x37, 0x9f, 0x51, 0xad, 0x26,
  0x2f, 0xc1, 0x9a, 0x24, 0x25, 0x4e, 0xc4, 0xe6, 0x58, 0xfc, 0x3f, 0x43,
  0x18, 0x9b, 0xb3, 0x62, 0xe8, 0xdb, 0xc4, 0xe6, 0x59, 0x5e, 0x27, 0xc5,
  0x23, 0x3c, 0xb7, 0xef, 0x10, 0x33, 0xbe, 0xfe, 0x99, 0x4c, 0xc6, 0x8f,
  0x00, 0xe3, 0x60, 0x4d, 0xe2, 0x3c, 0xda, 0x5c, 0xd7, 0x3f, 0x41, 0xa1,
  0xff, 0x0c, 0x9a, 0x48, 0xbd, 0x12, 0xfe, 0xd9, 0xec, 0xfa, 0x3e, 0x3c,
  0xd2, 0x2d, 0x53, 0xba, 0x25, 0x4d, 0x27, 0x1b, 0x09, 0xb7, 0x3a, 0x3a,
  0x03, 0xf7, 0x61, 0x1b, 0xf2, 0x24, 0x3a, 0xcb, 0x05, 0x45, 0x10, 0xed,
  0xee, 0x1b, 0x19, 0xee, 0xb4, 0x32, 0xe5, 0xb2, 0x38, 0x05, 0xf7, 0x05,
  0x29, 0xdb, 0x4d, 0xd9, 0x08, 0x11, 0x18, 0xbc, 0x3f, 0x0a, 0xce, 0xee,
  0x44, 0xf6, 0x1c, 0xdf, 0xaa, 0x07, 0x14, 0x17, 0xef, 0xce, 0x03, 0xfe,
  0xf3, 0x2d, 0x1b, 0x08, 0x26, 0xf7, 0xd1, 0x32, 0x22, 0xd2, 0x48, 0x0f,
  0xa2, 0x3f, 0x18, 0x06, 0xe6, 0x0b, 0xe2, 0xf5, 0x08, 0xc3, 0xfc, 0xcd,
  0xb0, 0x13, 0x05, 0xc3, 0x3f, 0x01, 0xa6, 0x13, 0xf3, 0x0b, 0x2f, 0x15,
  0x1d, 0xe7, 0x5a, 0xc7, 0xe5, 0x0b, 0xaa, 0x46, 0x2a, 0x1a, 0xd1, 0x4e,
  0xfe, 0x4f, 0x58, 0x01, 0x41, 0xf4, 0xd0, 0x11, 0xdb, 0xb7, 0x2a, 0xfd,
  0xd5, 0x02, 0x4d, 0xf4, 0x51, 0x33, 0xe4, 0x4d, 0x6b, 0xf8, 0xf0, 0x56,
  0xeb, 0x67, 0x4e, 0x1c, 0x54, 0x2b, 0xad, 0xfe, 0x6e, 0x9a, 0x1c, 0x7f,
  0xb2, 0xb2, 0xf5, 0x3a, 0x60, 0xbf, 0x24, 0xdd, 0x9d, 0xc1, 0x28, 0xd2,
  0xa9, 0xb4, 0x25, 0xfa, 0xde, 0xef, 0x1a, 0x2e, 0x44, 0x22, 0x12, 0xf8,
  0x1d, 0xec, 0x2c, 0xab, 0xea, 0x06, 0xba, 0xd6, 0xc8, 0xdd, 0x37, 0x9a,
  0xda, 0x45, 0xba, 0xb9, 0x37, 0xca, 0x34, 0x8e, 0xab, 0xfd, 0x81, 0x9d,
  0x27, 0xb6, 0x95, 0xb9, 0x63, 0x2f, 0x06, 0x16, 0xf9, 0xfb, 0xc0, 0xbe,
  0xc3, 0xbd, 0x43, 0xb3, 0x08, 0x2d, 0x09, 0xc6, 0xad, 0x02, 0x58, 0xb6,
  0x36, 0x33, 0x46, 0x0b, 0x0c, 0xd3, 0x45, 0x2c, 0x0f, 0xdf, 0x1e, 0xbf,
  0x06, 0x5c, 0x34, 0x2e, 0x56, 0x04, 0xcb, 0xcf, 0x42, 0x4a, 0x20, 0xd9,
  0xaf, 0x05, 0x45, 0xd7, 0x20, 0x32, 0x17, 0xc5, 0xb8, 0x27, 0xb6, 0xfe,
  0xc4, 0xc5, 0x1f, 0x3f, 0x23, 0xd3, 0xd4, 0x28, 0x3c, 0x49, 0x51, 0xb7,
  0xfa, 0x63, 0x1c, 0x1e, 0x61, 0xf6, 0xba, 0x22, 0x4a, 0x39, 0x02, 0x27,
  0x9c, 0x4f, 0xaa, 0x99, 0xfc, 0x25, 0x29, 0xc9, 0x0a, 0xf6, 0xf1, 0x8d,
  0xdd, 0x5a, 0x11, 0x33, 0xb0, 0x30, 0x81, 0xfb, 0x53, 0xc7, 0xd0, 0x5b,
  0xff, 0x13, 0xd0, 0x07, 0x08, 0xf8, 0xf2, 0xb3, 0xfd, 0xd1, 0x98, 0xd9,
  0xd2, 0x22, 0xf8, 0x18, 0xf2, 0xf7, 0x1c, 0x21, 0xd8, 0xeb, 0xd6, 0x3b,
  0xcf, 0xad, 0xce, 0x3e, 0xf7, 0xe3, 0x11, 0xfd, 0x1a, 0xee, 0xd1, 0x1c,
  0xec, 0xfc, 0x4c, 0x36, 0xb1, 0xc2, 0xf0, 0x2e, 0x2f, 0xc1, 0x2a, 0x2f,
  0x3b, 0xda, 0x58, 0xeb, 0xab, 0x14, 0xc1, 0xdb, 0x5c, 0xc4, 0xcb, 0x2b,
  0x0f, 0x1b, 0x53, 0xe4, 0x53, 0x4c, 0xf5, 0x1a, 0xed, 0x44, 0x40, 0x2f,
  0x2f, 0x49, 0xba, 0x1f, 0xdf, 0x06, 0xcc, 0x65, 0x49, 0x32, 0x22, 0x49,
  0x26, 0x35, 0xc4, 0x5f, 0x1a, 0x1d, 0x22, 0xda, 0x0e, 0xec, 0x4e, 0xea,
  0xf0, 0x39, 0x2e, 0x3a, 0x1d, 0xd2, 0x31, 0x49, 0x2e, 0x3a, 0xe4, 0x13,
  0xd1, 0x58, 0x06, 0x41, 0x6d, 0x27, 0xd6, 0x26, 0x18, 0x46, 0x2e, 0xba,
  0xcc, 0x5d, 0xc7, 0xe3, 0x78, 0x30, 0x28, 0x31, 0x57, 0x0e, 0x3b, 0x04,
  0x12, 0x4a, 0xd9, 0x3f, 0x37, 0x11, 0x50, 0x4a, 0x29, 0xe8, 0x22, 0x40,
  0xb4, 0x3a, 0xef, 0xff, 0x39, 0x32, 0xa5, 0x72, 0x44, 0xb0, 0x08, 0xef,
  0xe5, 0x78, 0x2c, 0x04, 0x7f, 0xe5, 0x26, 0x43, 0x22, 0x2e, 0x1f, 0x24,
  0x23, 0xea, 0xdf, 0x23, 0x11, 0x40, 0xca, 0x13, 0x2c, 0xd5, 0x09, 0x15,
  0x46, 0xfd, 0x33, 0x29, 0xed, 0xef, 0x15, 0xe2, 0x14, 0x17, 0xe0, 0x20,
  0x09, 0x2f, 0xd9, 0xed, 0xe3, 0xe3, 0xcf, 0x29, 0xea, 0x02, 0x32, 0x08,
  0xc2, 0xcb, 0xff, 0x10, 0x1d, 0x0d, 0xf0, 0xe5, 0xc7, 0x38, 0x06, 0x0f,
  0x13, 0xb1, 0x48, 0x14, 0x15, 0x51, 0xcb, 0xfe, 0xf2, 0xf2, 0xb3, 0xf7,
  0xa6, 0xb6, 0x50, 0xf6, 0xec, 0x16, 0xbf, 0xac, 0x04, 0x19, 0xcd, 0x43,
  0xe0, 0xf1, 0xc3, 0x27, 0x9b, 0x41, 0x52, 0xd6, 0x10, 0x29, 0x19, 0x4d,
  0x2c, 0xd5, 0x4f, 0xf0, 0xad, 0x1c, 0xf8, 0xbf, 0x44, 0x1e, 0x98, 0x54,
  0x13, 0x8c, 0xd3, 0x2f, 0xa9, 0x1d, 0x26, 0xfe, 0xee, 0xfc, 0x10, 0x1e,
  0x26, 0x9c, 0x1b, 0xcf, 0xc3, 0x22, 0x27, 0x85, 0x1b, 0xc1, 0x9e, 0x18,
  0xe8, 0x85, 0x45, 0x2a, 0x85, 0xf6, 0xb1, 0x15, 0x6a, 0xa8, 0xfc, 0x40,
  0xbb, 0x0f, 0xe6, 0x96, 0x1a, 0x53, 0xf0, 0xbb, 0x5f, 0x0e, 0x37, 0x20,
  0x81, 0x41, 0x69, 0x1b, 0xc7, 0x2d, 0xcf, 0x2e, 0xd2, 0x1c, 0x38, 0x2d,
  0xf6, 0x2c, 0x0b, 0x56, 0xc8, 0x53, 0x4f, 0xfd, 0xc7, 0xca, 0xb2, 0x2b,
  0x4e, 0xdb, 0x0c, 0xff, 0xed, 0x33, 0x53, 0x13, 0x53, 0xf5, 0xbd, 0x35,
  0x06, 0xa1, 0xe8, 0xa3, 0xa0, 0x62, 0xab, 0xe5, 0xf4, 0x82, 0xfc, 0x10,
  0xe1, 0xd8, 0x2d, 0xbb, 0x30, 0x70, 0xbd, 0x05, 0x6b, 0x17, 0xd1, 0x1e,
  0xfb, 0xbe, 0x4a, 0x1b, 0xf5, 0xd5, 0xaa, 0x43, 0x21, 0x0f, 0xfb, 0xe1,
  0x35, 0x40, 0x31, 0x01, 0xd5, 0x55, 0x0f, 0xd2, 0xbc, 0xae, 0xc4, 0x3d,
  0x24, 0xdc, 0xeb, 0xdd, 0x22, 0xd3, 0x45, 0x9d, 0xb9, 0xfd, 0xb7, 0x22,
  0xb1, 0x1f, 0xd7, 0xfc, 0xcd, 0x17, 0xa2, 0xcd, 0x30, 0xb0, 0x26, 0xc1,
  0xf0, 0xdb, 0xcc, 0xcd, 0x3d, 0x15, 0x0e, 0xd9, 0xdc, 0x29, 0x32, 0x14,
  0xb1, 0xad, 0x29, 0xc8, 0x19, 0xeb, 0xbb, 0xb3, 0x2d, 0x19, 0x02, 0x40,
  0x9b, 0xed, 0x0d, 0x94, 0xfc, 0xe8, 0xe8, 0xce, 0xe0, 0x21, 0xc2, 0x10,
  0x24, 0xcc, 0x38, 0x25, 0xb5, 0x61, 0x49, 0xca, 0x43, 0xe3, 0xc6, 0x5a,
  0xce, 0xd6, 0xd4, 0x1d, 0xcc, 0xfa, 0xa7, 0xe4, 0x71, 0xb4, 0xec, 0x1b,
  0x25, 0x7a, 0x06, 0xb5, 0xef, 0x23, 0x2e, 0x1d, 0xd9, 0xea, 0x42, 0x2b,
  0x23, 0xeb, 0x3e, 0xe4, 0xbe, 0xcb, 0x58, 0xfa, 0x50, 0xe4, 0x23, 0xec,
  0xb8, 0x4a, 0x31, 0xee, 0xc2, 0x61, 0xcd, 0xed, 0x59, 0xcc, 0x03, 0xf8,
  0x0c, 0xac, 0x0b, 0xde, 0x17, 0x49, 0x67, 0x23, 0xc6, 0x7f, 0xfb, 0xeb,
  0x7e, 0xff, 0xc7, 0x27, 0xc4, 0xd9, 0x60, 0x2b, 0xe4, 0x10, 0xee, 0xc0,
  0x4f, 0x94, 0x2b, 0x5e, 0x09, 0xe5, 0x39, 0xc7, 0x3e, 0x46, 0xef, 0x28,
  0x15, 0xb6, 0x9d, 0x4d, 0xe6, 0xc3, 0x4c, 0xd8, 0xb6, 0x57, 0x97, 0xba,
  0x69, 0xeb, 0x1e, 0xec, 0x24, 0xe5, 0x15, 0xb1, 0xca, 0x3d, 0x87, 0xaa,
  0x0f, 0xf6, 0x19, 0xf7, 0x8b, 0x05, 0xf1, 0x92, 0x1b, 0x3f, 0xec, 0xb5,
  0x62, 0xba, 0x9a, 0x3e, 0xdc, 0x82, 0xc4, 0xc8, 0x3c, 0x44, 0xc8, 0xd7,
  0x47, 0x08, 0x2f, 0x16, 0x3d, 0xd8, 0xe6, 0x18, 0x3f, 0xd6, 0x2f, 0x23,
  0x2c, 0x1e, 0xe0, 0xf9, 0x32, 0x23, 0xf8, 0xb2, 0xfd, 0xd9, 0xe5, 0xf3,
  0xfe, 0x37, 0x48, 0xc4, 0xa2, 0xe4, 0xd9, 0x12, 0x16, 0x19, 0xca, 0xe0,
  0x3a, 0x10, 0xfb, 0x4a, 0x2f, 0x09, 0x55, 0xe9, 0xb9, 0x45, 0xfb, 0x11,
  0xd9, 0xd7, 0xca, 0xa8, 0xa7, 0x07, 0x38, 0xe5, 0xff, 0xdc, 0xee, 0x40,
  0xd9, 0x14, 0x0c, 0x1d, 0xec, 0x1b, 0xd6, 0x50, 0xfd, 0x24, 0x44, 0xcc,
  0x0b, 0xc9, 0x21, 0x9a, 0x45, 0x28, 0x14, 0x3a, 0x32, 0x27, 0xf4, 0x29,
  0xcd, 0x23, 0xfb, 0xf6, 0x03, 0x69, 0x12, 0x1d, 0x57, 0xca, 0xcb, 0x11,
  0x0b, 0xe3, 0x71, 0xb3, 0xd1, 0xd8, 0xcd, 0x41, 0x05, 0xca, 0x39, 0x42,
  0xef, 0xb0, 0x3a, 0xac, 0x42, 0x2b, 0x1c, 0xde, 0x6c, 0x2b, 0x43, 0x50,
  0xec, 0xfc, 0x29, 0x20, 0x7a, 0xdc, 0x00, 0x2a, 0xf1, 0xfa, 0x71, 0x6a,
  0xff, 0x07, 0x7f, 0x25, 0x1b, 0xf0, 0xf2, 0xfe, 0xed, 0x09, 0x06, 0xff,
  0x2e, 0xb7, 0x3e, 0x36, 0xca, 0x16, 0xbe, 0xb4, 0xc4, 0x48, 0x90, 0x0f,
  0xb9, 0x02, 0xf6, 0xf1, 0xcc, 0x5d, 0x4a, 0xdf, 0xc3, 0x23, 0xf7, 0xf3,
  0x2e, 0xd8, 0xb1, 0x0b, 0xbe, 0xba, 0x14, 0xc8, 0xca, 0x1a, 0xf8, 0xbb,
  0xee, 0xf4, 0xbf, 0xef, 0x1c, 0x0b, 0x37, 0x1b, 0x28, 0xd6, 0xd5, 0x25,
  0x13, 0xa6, 0xda, 0xb0, 0xd5, 0x4a, 0x99, 0x81, 0xf8, 0x03, 0xa3, 0x54,
  0x1c, 0x36, 0x5f, 0xb6, 0xa1, 0x3a, 0x6b, 0x08, 0xdc, 0x39, 0xb9, 0x5b,
  0x04, 0x4c, 0x2b, 0x17, 0x08, 0xa4, 0x60, 0x1f, 0xb7, 0xe6, 0xb2, 0xa7,
  0xce, 0xea, 0xba, 0xf0, 0x93, 0x35, 0xff, 0xe0, 0xe0, 0xcc, 0xd9, 0xf5,
  0xde, 0x4e, 0xe1, 0x18, 0xe5, 0x06, 0xdc, 0x3d, 0x18, 0x0b, 0x15, 0x05,
  0xf2, 0x5a, 0xfd, 0x11, 0x12, 0xbe, 0xcb, 0x3a, 0xb0, 0x5a, 0x5f, 0xdf,
  0xf2, 0xfe, 0xbd, 0xc7, 0xf3, 0x10, 0xfc, 0xdf, 0x78, 0xe2, 0x25, 0x46,
  0xca, 0x03, 0xe8, 0x46, 0x87, 0x1a, 0x32, 0xc5, 0xfc, 0x2b, 0x32, 0x79,
  0x66, 0xda, 0x72, 0xb8, 0x22, 0x1c, 0x8f, 0xa0, 0x3c, 0x9b, 0xdb, 0xe6,
  0x91, 0x0c, 0x27, 0x03, 0x0c, 0x11, 0xd9, 0x2c, 0x03, 0xca, 0x0f, 0x45,
  0xce, 0xcf, 0xeb, 0xd3, 0x39, 0xfe, 0xff, 0xda, 0xe3, 0xc7, 0x0a, 0x0b,
  0x22, 0xea, 0x20, 0xa7, 0x10, 0x3d, 0xde, 0x09, 0x02, 0x32, 0xa2, 0x68,
  0xda, 0xb4, 0x1f, 0xb7, 0x27, 0x20, 0xf0, 0xd7, 0x69, 0x02, 0x15, 0x3e,
  0xd7, 0x45, 0x4e, 0x00, 0x1e, 0xfa, 0xfe, 0xe4, 0x1f, 0x6a, 0x4b, 0xe1,
  0x11, 0x4f, 0xe6, 0x4a, 0xd6, 0xe8, 0x22, 0x22, 0x2f, 0x14, 0x29, 0xd7,
  0x5b, 0xbc, 0x28, 0x5a, 0x65, 0x31, 0x4e, 0x2a, 0x1c, 0xf8, 0x54, 0x0a,
  0x44, 0x19, 0xcb, 0xd6, 0x15, 0x08, 0x17, 0x49, 0xc2, 0xce, 0x6d, 0x39,
  0x0b, 0x2a, 0x23, 0x29, 0x55, 0xca, 0x5d, 0x31, 0xd2, 0x04, 0x3c, 0xed,
  0x44, 0x28, 0xce, 0x03, 0x22, 0x32, 0x29, 0x00, 0x11, 0x51, 0x3b, 0x37,
  0xec, 0x2e, 0xc3, 0x70, 0x4f, 0x20, 0x16, 0xfe, 0xbc, 0xf6, 0xe8, 0x9f,
  0x37, 0x0e, 0xfd, 0xfa, 0x32, 0x01, 0x41, 0xf5, 0x8b, 0x74, 0x7f, 0x92,
  0xe7, 0xce, 0x41, 0xec, 0x20, 0xd2, 0x55, 0x48, 0x09, 0x54, 0x3e, 0x5a,
  0x10, 0xea, 0x24, 0xe3, 0x39, 0x16, 0x64, 0xe7, 0x29, 0x20, 0x41, 0xd2,
  0xb1, 0xab, 0x2e, 0xfd, 0x31, 0x1f, 0xed, 0xf8, 0xd8, 0x12, 0x5d, 0xf4,
  0x31, 0x10, 0x06, 0xb7, 0xe8, 0x6a, 0xe1, 0x45, 0x2a, 0xee, 0x02, 0x0c,
  0xeb, 0x01, 0xd4, 0xce, 0x10, 0x23, 0x4e, 0xde, 0x51, 0x19, 0xd0, 0xef,
  0x65, 0x34, 0x00, 0x0a, 0xd2, 0xe3, 0x39, 0xd0, 0x57, 0x12, 0x23, 0x43,
  0x6a, 0x4e, 0x1a, 0xdd, 0x19, 0x19, 0x2b, 0x6a, 0xeb, 0x2d, 0x44, 0xbe,
  0x1e, 0x4b, 0x5b, 0x31, 0xc0, 0xdf, 0x20, 0x47, 0x34, 0x00, 0x28, 0x32,
  0xdd, 0x53, 0xdc, 0x00, 0xe5, 0x08, 0xf2, 0x60, 0x03, 0x5e, 0xf6, 0x62,
  0xec, 0xde, 0xed, 0x50, 0x64, 0x56, 0xf9, 0x30, 0x25, 0x35, 0x43, 0xe7,
  0x59, 0xdb, 0x12, 0x4c, 0x75, 0x1d, 0x60, 0x66, 0x6e, 0x01, 0xe5, 0x3a,
  0x73, 0xda, 0x3d, 0x7a, 0x20, 0x6f, 0x0b, 0x54, 0x3a, 0x75, 0x0f, 0x49,
  0xf9, 0x7f, 0x44, 0x6e, 0x69, 0xea, 0x38, 0xf6, 0x26, 0x1e, 0xba, 0x39,
  0xf7, 0x9e, 0x1b, 0xf7, 0xd7, 0x50, 0x78, 0xef, 0x29, 0xf3, 0xf1, 0x50,
  0xe0, 0x45, 0xc3, 0xd1, 0x4f, 0xf0, 0xd6, 0x5a, 0xf7, 0x81, 0x00, 0x0d,
  0xc0, 0x29, 0xcc, 0x9f, 0x5b, 0xa9, 0xd9, 0x7e, 0xd6, 0x20, 0x73, 0xe4,
  0x1a, 0x4e, 0xf6, 0x47, 0x16, 0x09, 0x36, 0x37, 0xdd, 0x6a, 0xdf, 0x2b,
  0x1c, 0xec, 0x08, 0x18, 0x83, 0x2e, 0x43, 0xf2, 0x06, 0x3a, 0xa9, 0xd6,
  0xd2, 0xe1, 0x3b, 0x10, 0x1f, 0xf9, 0xcc, 0xe7, 0x45, 0xf0, 0xfe, 0x1a,
  0xf8, 0x33, 0xd8, 0xf2, 0x6a, 0xd9, 0x13, 0x0a, 0x55, 0xe9, 0x4c, 0x4a,
  0x94, 0x3c, 0xf1, 0xa4, 0xd7, 0x14, 0xff, 0xb3, 0x32, 0xe0, 0xd5, 0x71,
  0x04, 0x2b, 0x0d, 0xf6, 0x07, 0xc1, 0xfd, 0xd2, 0xdd, 0xaf, 0xd0, 0xef,
  0xce, 0x11, 0x18, 0xf3, 0xeb, 0xb0, 0x10, 0x48, 0xac, 0xfb, 0x01, 0x07,
  0x12, 0xe6, 0xb4, 0xe6, 0x17, 0x17, 0x15, 0xc5, 0xbd, 0xef, 0xf7, 0xb3,
  0x39, 0x95, 0x14, 0xf6, 0xc4, 0xee, 0xfe, 0x86, 0xb8, 0x11, 0x82, 0x09,
  0xd2, 0x39, 0xf9, 0xf3, 0x35, 0x0b, 0xb1, 0xe7, 0x4a, 0xc3, 0xd0, 0x17,
  0xc3, 0xcb, 0x23, 0xd0, 0x03, 0xff, 0xbb, 0xa8, 0x4a, 0xf5, 0xa3, 0xfd,
  0x4a, 0x87, 0x1a, 0x14, 0x81, 0x3c, 0xe9, 0x87, 0x3d, 0xee, 0x1b, 0x17,
  0x28, 0xfd, 0xf0, 0xb1, 0x3e, 0xf9, 0x12, 0x10, 0x34, 0x04, 0xe3, 0x47,
  0x44, 0xed, 0x30, 0x48, 0x69, 0x48, 0xd5, 0x65, 0x2e, 0x31, 0x1a, 0xd3,
  0xe0, 0x57, 0xe9, 0x24, 0x48, 0xe6, 0xcd, 0xfb, 0x4f, 0x4f, 0xad, 0x05,
  0xc8, 0x21, 0xd9, 0xf4, 0x0e, 0x00, 0xca, 0xa8, 0xe5, 0xf7, 0x2c, 0x30,
  0x33, 0x23, 0x3a, 0xa8, 0xcd, 0xe8, 0xd3, 0x10, 0x12, 0x25, 0x1f, 0x2f,
  0x16, 0x5b, 0xaf, 0xb3, 0x27, 0x9c, 0xf5, 0x5c, 0xf1, 0xce, 0x62, 0x04,
  0x07, 0x2b, 0x26, 0xfc, 0x23, 0x03, 0x33, 0x5e, 0xc3, 0x33, 0xfe, 0xa9,
  0x47, 0xdc, 0xf6, 0x26, 0x4e, 0xcd, 0xdc, 0xda, 0xc1, 0x2e, 0x55, 0xd8,
  0xe0, 0x61, 0x96, 0x2a, 0xec, 0xeb, 0x13, 0x6a, 0xb1, 0x1e, 0x6e, 0x20,
  0xfc, 0xeb, 0xa8, 0xc9, 0x1f, 0xac, 0x73, 0xdc, 0x39, 0x2b, 0x05, 0x36,
  0x11, 0xc9, 0xe9, 0x60, 0x8b, 0x38, 0x62, 0x88, 0xd1, 0x65, 0x0e, 0x2f,
  0x57, 0xf5, 0x4c, 0xda, 0x9a, 0xcb, 0x32, 0x23, 0x26, 0x2c, 0xf1, 0xc1,
  0x36, 0xf7, 0x0e, 0xf7, 0x0a, 0xe6, 0xfc, 0x58, 0xd2, 0xac, 0x1c, 0x20,
  0xac, 0xf7, 0x3c, 0x93, 0x47, 0x2b, 0x90, 0xb1, 0x3c, 0x92, 0x0d, 0x21,
  0xd5, 0xfe, 0xd7, 0x35, 0xfd, 0x27, 0x1a, 0x3c, 0xdc, 0x43, 0x5c, 0xef,
  0x26, 0x14, 0xb4, 0x4d, 0x4e, 0x32, 0x20, 0x0e, 0xed, 0x04, 0xd8, 0x34,
  0x44, 0x28, 0xac, 0x02, 0xf0, 0xa9, 0xd2, 0xec, 0x39, 0x29, 0xc1, 0x2a,
  0x2c, 0xd1, 0x07, 0xc0, 0xc3, 0x21, 0x1c, 0x08, 0x57, 0x06, 0x4e, 0x5d,
  0x91, 0xd9, 0x45, 0xba, 0xfa, 0x3f, 0xdf, 0x08, 0xed, 0xc2, 0xec, 0xd5,
  0xcc, 0xf9, 0xc8, 0xf3, 0x0e, 0xa6, 0xc2, 0x56, 0xd3, 0xa3, 0xd2, 0x2b,
  0x28, 0x28, 0x38, 0x15, 0x15, 0xd9, 0xca, 0xdd, 0xc3, 0xb8, 0x2f, 0xd9,
  0xed, 0x67, 0x34, 0xcf, 0x79, 0x2b, 0xb4, 0x7f, 0x2b, 0x53, 0x52, 0xea,
  0x33, 0x43, 0xfc, 0x1e, 0x18, 0xde, 0xc3, 0x2a, 0xda, 0xc8, 0x38, 0x11,
  0x2b, 0xd4, 0x2b, 0xfd, 0xfc, 0xcc, 0xdf, 0x2d, 0xea, 0x3e, 0x24, 0x62,
  0x77, 0xe8, 0x67, 0x03, 0xa9, 0x41, 0x58, 0xb8, 0xea, 0xe0, 0xef, 0xf0,
  0x19, 0x02, 0xe7, 0xe4, 0x05, 0x1d, 0xcb, 0x0a, 0x28, 0xdb, 0xd4, 0xbf,
  0x15, 0x3a, 0xe8, 0x57, 0xcd, 0x27, 0x19, 0xf7, 0x46, 0x58, 0xf6, 0x36,
  0x1b, 0x15, 0xd8, 0x1d, 0x51, 0xf2, 0x25, 0x46, 0x47, 0xf6, 0x41, 0x01,
  0x68, 0x01, 0xe3, 0x42, 0x15, 0x4c, 0x31, 0x29, 0x1b, 0x03, 0xf2, 0x1c,
  0x08, 0xff, 0x59, 0x23, 0x2e, 0x69, 0x2d, 0xfd, 0x2d, 0xec, 0xee, 0x18,
  0x0b, 0xde, 0xe7, 0x18, 0xe0, 0x2e, 0x3d, 0x07, 0x20, 0x56, 0x38, 0xe8,
  0x2c, 0x4c, 0x38, 0xfc, 0x1b, 0x4f, 0x7f, 0x4b, 0x38, 0x20, 0x1f, 0x3b,
  0x14, 0x56, 0x56, 0xff, 0x5d, 0x1c, 0x28, 0x1b, 0xfd, 0x35, 0xfd, 0x17,
  0x5b, 0x1a, 0x13, 0x39, 0x66, 0xc4, 0x74, 0x22, 0xf3, 0x0a, 0xd9, 0xba,
  0x4f, 0x5b, 0xe1, 0x67, 0x78, 0xcb, 0x28, 0xc1, 0x1d, 0x32, 0xf8, 0x27,
  0x7f, 0xec, 0x4e, 0x27, 0xcc, 0xf1, 0x3b, 0x23, 0xb8, 0x20, 0x2a, 0xf2,
  0x19, 0x7d, 0xf7, 0x06, 0x78, 0xf6, 0xbf, 0x28, 0x11, 0x17, 0x2c, 0x12,
  0xfd, 0xf3, 0xd6, 0xf6, 0xd3, 0xcb, 0xeb, 0x1f, 0x0d, 0x24, 0xcc, 0xe7,
  0xf8, 0xf1, 0xd4, 0xd6, 0xdc, 0x5c, 0xf6, 0xf8, 0x54, 0x46, 0xf7, 0x60,
  0x01, 0x17, 0xe8, 0x4a, 0x03, 0xe3, 0x29, 0x41, 0xb8, 0x2c, 0xf8, 0xee,
  0xee, 0x2e, 0xab, 0xea, 0x31, 0xf4, 0x4e, 0x1c, 0xda, 0xd7, 0x2c, 0x14,
  0x2d, 0xfe, 0x31, 0xe1, 0x10, 0xec, 0x04, 0x9a, 0xff, 0x14, 0x00, 0x08,
  0x4f, 0x09, 0xd4, 0x4f, 0x1d, 0xee, 0x2e, 0x21, 0x09, 0x52, 0xed, 0x17,
  0x4a, 0x01, 0xfe, 0x77, 0xd0, 0x2d, 0x65, 0xd1, 0x1b, 0x66, 0xcc, 0xc3,
  0x1b, 0xdc, 0xda, 0x71, 0x2b, 0x36, 0x16, 0xd6, 0xb8, 0x08, 0x39, 0xff,
  0x6b, 0xfb, 0x02, 0x00, 0xbb, 0x04, 0x10, 0xe8, 0x2e, 0xec, 0xd5, 0x23,
  0x1b, 0x01, 0xf5, 0x16, 0x27, 0x1c, 0x50, 0x21, 0x08, 0xed, 0xfa, 0xc8,
  0x50, 0xca, 0x16, 0xdb, 0xfa, 0x29, 0x42, 0xe9, 0x34, 0xec, 0x22, 0x4e,
  0x29, 0x0d, 0x49, 0x0c, 0x01, 0xfd, 0xf6, 0x06, 0xef, 0xe9, 0xbd, 0x16,
  0x81, 0xc8, 0x20, 0xcc, 0xfe, 0xce, 0xc8, 0x03, 0xfa, 0x95, 0x49, 0x19,
  0x9a, 0x22, 0x0e, 0xeb, 0x10, 0x1c, 0xbe, 0x23, 0xd9, 0x24, 0xdd, 0x52,
  0x0a, 0xcf, 0xef, 0xc3, 0xf5, 0xc5, 0xfd, 0xf5, 0xed, 0x25, 0x03, 0xd3,
  0x0c, 0xe5, 0xc7, 0xfb, 0xd9, 0x2a, 0x5e, 0x3d, 0x38, 0x4d, 0x46, 0xf7,
  0x21, 0x24, 0x02, 0xda, 0x45, 0xd0, 0x3d, 0x3d, 0x4b, 0xdf, 0x41, 0x10,
  0xfc, 0x2e, 0xd7, 0x36, 0x09, 0x0a, 0x51, 0xf8, 0xd1, 0x0b, 0xe6, 0xd4,
  0x2b, 0xf9, 0xe8, 0x1d, 0xe1, 0xd0, 0x06, 0x0d, 0xd0, 0x45, 0xb7, 0xe2,
  0x0d, 0xa8, 0x26, 0x69, 0xdb, 0x21, 0x61, 0xe5, 0xf0, 0x16, 0x25, 0x17,
  0x6b, 0xe0, 0xcb, 0xef, 0xce, 0xd7, 0x02, 0xc8, 0xc4, 0xef, 0x31, 0x36,
  0x4f, 0x1a, 0x2c, 0x70, 0xe5, 0xd2, 0x1d, 0x39, 0xc0, 0xf6, 0xdb, 0xf0,
  0x33, 0x06, 0xcc, 0x43, 0x3e, 0xed, 0x26, 0xdb, 0x23, 0x0d, 0x3a, 0x27,
  0x4f, 0x37, 0x31, 0x6a, 0x18, 0x10, 0x4d, 0x07, 0x25, 0x43, 0x59, 0x10,
  0xe7, 0x37, 0xfd, 0x9e, 0x1d, 0xa1, 0xa8, 0x6f, 0x1c, 0x8e, 0xfd, 0xd1,
  0xec, 0xe0, 0xf6, 0xf0, 0xe3, 0xb8, 0x1e, 0xd2, 0xdc, 0x1a, 0x02, 0x08,
  0x10, 0x01, 0xe3, 0x18, 0xc0, 0x1f, 0xef, 0xc3, 0xbd, 0x4a, 0xa7, 0x2b,
  0xfc, 0xd6, 0x3c, 0x01, 0x09, 0xf1, 0xce, 0x27, 0x04, 0x0a, 0x33, 0xb6,
  0xce, 0x30, 0x9c, 0x27, 0xed, 0x0b, 0xd7, 0xd7, 0xc6, 0xbb, 0xf2, 0xf4,
  0x83, 0xfe, 0xfc, 0x9a, 0xcb, 0x21, 0x1f, 0x0e, 0x3a, 0x00, 0x82, 0x31,
  0xeb, 0x81, 0xdb, 0x2b, 0xb7, 0x23, 0x03, 0xe6, 0x0c, 0x42, 0xfb, 0x1f,
  0x4b, 0x33, 0x2a, 0x5a, 0x3c, 0x4d, 0x30, 0x24, 0x3b, 0x70, 0x4b, 0xd8,
  0x66, 0xd8, 0x35, 0x50, 0xec, 0xcb, 0xdb, 0xc4, 0xe1, 0xfe, 0x2e, 0xe3,
  0x2c, 0xf8, 0xff, 0xd9, 0x08, 0xc0, 0xe1, 0x24, 0xd2, 0xbd, 0x12, 0x29,
  0xb4, 0x0f, 0x1a, 0xb6, 0xf6, 0x48, 0xb7, 0xf9, 0xf2, 0x1a, 0x68, 0xd1,
  0x26, 0xfa, 0x00, 0xe4, 0xdb, 0x58, 0x6f, 0x90, 0x30, 0x21, 0xc6, 0x12,
  0xd2, 0x97, 0x44, 0x1d, 0xd9, 0x63, 0xd2, 0xae, 0xe9, 0x32, 0xbb, 0x5d,
  0x2c, 0xbf, 0x46, 0x55, 0xc9, 0x0a, 0xbe, 0x16, 0x3e, 0x37, 0xaf, 0xf3,
  0x39, 0x0d, 0x03, 0x90, 0xd1, 0x4e, 0xfb, 0xe2, 0x35, 0x95, 0x25, 0x57,
  0x8e, 0x7e, 0xcc, 0xc8, 0x00, 0xf8, 0xeb, 0x07, 0xd8, 0xc8, 0xc8, 0x23,
  0xcb, 0x44, 0x2e, 0xa5, 0x1d, 0x39, 0x21, 0x59, 0xd2, 0xd2, 0xef, 0xff,
  0xd4, 0x11, 0xd9, 0xd2, 0x47, 0x21, 0xff, 0x43, 0xe5, 0x13, 0x0c, 0x36,
  0xf7, 0xc2, 0xbd, 0x9e, 0x5b, 0x22, 0xd8, 0x52, 0xd6, 0x92, 0x0d, 0xe8,
  0x09, 0xcf, 0x25, 0x08, 0x75, 0xf9, 0xea, 0x6d, 0x21, 0xb7, 0x4d, 0x0a,
  0xc2, 0x5f, 0x45, 0xb7, 0xec, 0xed, 0xce, 0x4e, 0xd2, 0x8e, 0x1b, 0xfd,
  0x92, 0xe3, 0xa9, 0x86, 0x63, 0xc8, 0x81, 0xd3, 0xa1, 0xb2, 0xfa, 0xa4,
  0xf7, 0xdc, 0xd5, 0x9b, 0x1e, 0xf0, 0xc7, 0x52, 0x0f, 0xdc, 0x46, 0xbc,
  0x87, 0x06, 0x1f, 0x0d, 0xd2, 0xe1, 0x4a, 0x19, 0x22, 0x33, 0x48, 0xfd,
  0xe1, 0xee, 0xe1, 0x07, 0xef, 0x1d, 0xe5, 0x2a, 0x4d, 0xfd, 0x43, 0x22,
  0xce, 0x4b, 0x1a, 0x1f, 0x5e, 0xd8, 0x04, 0xe4, 0xbe, 0x24, 0x01, 0xe1,
  0xc5, 0x0f, 0xd6, 0xe6, 0x24, 0xf6, 0xde, 0xea, 0x1b, 0xf3, 0xf6, 0x29,
  0xe9, 0xd5, 0xd0, 0x4d, 0x47, 0x24, 0xdf, 0x48, 0xfc, 0xd2, 0xde, 0x28,
  0xe7, 0xdf, 0xf1, 0xf2, 0x1f, 0xf6, 0x27, 0x10, 0xd1, 0xb3, 0x06, 0x0a,
  0x9a, 0xfb, 0x09, 0xf3, 0xe7, 0x15, 0xc6, 0xe9, 0xeb, 0xc5, 0x40, 0x3a,
  0xf0, 0x43, 0x34, 0x19, 0xdf, 0x10, 0xaa, 0xec, 0xd2, 0xb9, 0xe4, 0x12,
  0xf2, 0xd6, 0x05, 0xd7, 0xe7, 0x1a, 0xfb, 0x35, 0x42, 0x03, 0xe2, 0x3d,
  0xf2, 0xa4, 0xf8, 0xee, 0xde, 0x22, 0x1b, 0x1e, 0xda, 0xe5, 0x0d, 0xc4,
  0xca, 0xc7, 0xff, 0x9f, 0xe3, 0xf6, 0xd1, 0x24, 0x12, 0x81, 0x98, 0xc8,
  0xe3, 0x18, 0xc0, 0xf7, 0xae, 0xa8, 0x9a, 0xf0, 0xa6, 0x93, 0xfe, 0x33,
  0x07, 0xe7, 0x38, 0xef, 0xb6, 0xfc, 0xac, 0xbe, 0x23, 0xae, 0xf3, 0xd0,
  0xf6, 0xfb, 0xff, 0xff, 0x04, 0x00, 0x00, 0x00, 0x80, 0x00, 0x00, 0x00,
  0xc0, 0x02, 0x00, 0x00, 0xe4, 0xff, 0xff, 0xff, 0xde, 0x03, 0x00, 0x00,
  0x8f, 0x03, 0x00, 0x00, 0xa7, 0x01, 0x00, 0x00, 0xa8, 0x04, 0x00, 0x00,
  0x60, 0x02, 0x00, 0x00, 0x8f, 0x02, 0x00, 0x00, 0x0a, 0x03, 0x00, 0x00,
  0xd8, 0x01, 0x00, 0x00, 0x0e, 0x04, 0x00, 0x00, 0xc4, 0x01, 0x00, 0x00,
  0x47, 0x00, 0x00, 0x00, 0xeb, 0x03, 0x00, 0x00, 0x95, 0xfd, 0xff, 0xff,
  0x06, 0x02, 0x00, 0x00, 0x75, 0x03, 0x00, 0x00, 0xe6, 0x02, 0x00, 0x00,
  0x0b, 0x04, 0x00, 0x00, 0x2c, 0x00, 0x00, 0x00, 0x38, 0x02, 0x00, 0x00,
  0x82, 0x04, 0x00, 0x00, 0x15, 0x03, 0x00, 0x00, 0x2c, 0x01, 0x00, 0x00,
  0xdf, 0x02, 0x00, 0x00, 0x08, 0x00, 0x00, 0x00, 0x58, 0x05, 0x00, 0x00,
  0x11, 0x03, 0x00, 0x00, 0xb4, 0x01, 0x00, 0x00, 0x01, 0x00, 0x00, 0x00,
  0x91, 0x02, 0x00, 0x00, 0xf8, 0x01, 0x00, 0x00, 0x82, 0xfc, 0xff, 0xff,
  0x04, 0x00, 0x00, 0x00, 0x00, 0x02, 0x00, 0x00, 0x54, 0xa9, 0xe3, 0x1e,
  0xe1, 0xe4, 0xdf, 0x0f, 0x6f, 0xe4, 0x0f, 0xb4, 0x4b, 0x29, 0x81, 0x1f,
  0xeb, 0x8e, 0x5c, 0x90, 0x87, 0x42, 0x82, 0x31, 0x27, 0x4a, 0x50, 0x49,
  0xff, 0xab, 0x9b, 0x7d, 0x0c, 0xac, 0x4f, 0x4b, 0x50, 0x6b, 0x65, 0x59,
  0x11, 0xea, 0x02, 0x1b, 0x3d, 0x3c, 0xd3, 0x0f, 0x4c, 0x7f, 0xc0, 0xe3,
  0xf7, 0xe9, 0xc4, 0xcc, 0x26, 0x2c, 0xc5, 0xb7, 0x8d, 0xec, 0x5a, 0x1e,
  0x7e, 0x3f, 0xcc, 0x86, 0x6d, 0xaa, 0x34, 0x8e, 0x7f, 0x17, 0x34, 0x04,
  0x63, 0x07, 0x1f, 0x25, 0xaa, 0xe4, 0x73, 0x29, 0x77, 0xc5, 0x64, 0x61,
  0xbc, 0x74, 0xbc, 0x26, 0x0a, 0x67, 0x01, 0x62, 0x05, 0xcf, 0x0a, 0x39,
  0x4e, 0x5c, 0x62, 0x3f, 0x7f, 0x20, 0x4f, 0xe7, 0xed, 0xde, 0x48, 0xaf,
  0x35, 0x3e, 0x50, 0xbf, 0xba, 0x0d, 0xd9, 0x5a, 0x46, 0xd3, 0x0f, 0x50,
  0x1e, 0xe6, 0x11, 0x48, 0x50, 0x16, 0xcf, 0x5c, 0x60, 0x3a, 0x07, 0xdf,
  0xf2, 0xb6, 0xd9, 0x07, 0x0c, 0x7f, 0x48, 0x2f, 0xc9, 0x09, 0x92, 0x43,
  0xcf, 0x30, 0x05, 0x1e, 0x44, 0x44, 0xed, 0xce, 0xf9, 0xb9, 0x52, 0xf4,
  0x44, 0xf6, 0x2e, 0xec, 0x82, 0x96, 0x81, 0xb5, 0x3c, 0x8b, 0x25, 0x97,
  0xb9, 0x25, 0x9d, 0x99, 0x52, 0xfb, 0xcb, 0x9f, 0x1d, 0x65, 0xea, 0x13,
  0x4f, 0x0d, 0x8c, 0x85, 0xc1, 0xaa, 0x96, 0x26, 0x71, 0x70, 0x08, 0x1d,
  0x7f, 0xe3, 0x4b, 0xc3, 0x25, 0x48, 0x2a, 0xd6, 0xae, 0xf8, 0x27, 0x6c,
  0x20, 0xb9, 0xc7, 0x18, 0x0b, 0x7b, 0x77, 0x29, 0x66, 0x5e, 0x74, 0x0b,
  0x03, 0x6c, 0x32, 0xd2, 0xd6, 0x16, 0xd9, 0x85, 0xfc, 0xba, 0x09, 0x05,
  0x4c, 0x7f, 0xe9, 0xc9, 0x49, 0x45, 0x14, 0xf9, 0x1b, 0x07, 0x63, 0x31,
  0xde, 0x50, 0x1e, 0x0e, 0x2e, 0xa7, 0x31, 0x40, 0x26, 0x1a, 0xbe, 0x50,
  0x37, 0xe3, 0x45, 0xf2, 0xe3, 0x02, 0x2f, 0x6d, 0x12, 0x4d, 0x7f, 0x34,
  0xcf, 0x02, 0xbd, 0xa9, 0xf5, 0xc0, 0x68, 0xba, 0x4f, 0x21, 0x32, 0x53,
  0xf2, 0x31, 0xdc, 0x2a, 0x6d, 0x54, 0x02, 0xf7, 0xc1, 0x10, 0x7b, 0xf6,
  0xc3, 0xfa, 0xeb, 0x6c, 0x0c, 0xe8, 0xca, 0x2a, 0x09, 0xa5, 0x01, 0x1e,
  0x44, 0x50, 0x7f, 0x06, 0xdd, 0x2d, 0x55, 0xaf, 0xcd, 0x8d, 0xe4, 0xe8,
  0x53, 0xaf, 0x33, 0x5a, 0x3d, 0x51, 0xf2, 0xd7, 0xd1, 0x60, 0x81, 0xc2,
  0xd0, 0x4a, 0x69, 0x31, 0x24, 0xff, 0x14, 0x2a, 0x20, 0x31, 0x9c, 0xce,
  0x46, 0x14, 0x56, 0x24, 0xae, 0x09, 0x24, 0xf1, 0xa7, 0x2c, 0x93, 0xbf,
  0x1b, 0x7f, 0x21, 0x2f, 0x61, 0xce, 0xd9, 0xc8, 0x2a, 0xf6, 0xa5, 0x0b,
  0x49, 0x05, 0x02, 0x12, 0xbd, 0x12, 0x4f, 0x4d, 0x23, 0xd6, 0xd2, 0xea,
  0xac, 0x2d, 0x4f, 0x0a, 0xb3, 0xc2, 0xa6, 0x36, 0x13, 0x03, 0xc0, 0xf2,
  0x07, 0x01, 0xc6, 0x88, 0xc0, 0x3a, 0xd4, 0x83, 0x26, 0xf3, 0xbe, 0xdd,
  0xa0, 0x7d, 0x81, 0x45, 0x94, 0xe3, 0x71, 0x84, 0x2f, 0x73, 0xed, 0x27,
  0x30, 0x99, 0x50, 0x85, 0x4b, 0x2c, 0x05, 0xdb, 0xf2, 0xe6, 0x77, 0x4b,
  0xe0, 0xf6, 0x7f, 0x30, 0xf3, 0x03, 0xbb, 0xb5, 0x26, 0xef, 0xc5, 0x2d,
  0xef, 0xc0, 0xbc, 0x71, 0x56, 0x0b, 0x12, 0x70, 0xe1, 0x71, 0x48, 0x4c,
  0xe9, 0x06, 0x64, 0xa8, 0xd3, 0x1f, 0x1c, 0x2b, 0x05, 0x99, 0xfe, 0x48,
  0x13, 0x3a, 0xe8, 0x10, 0x55, 0x38, 0x2d, 0x37, 0xea, 0x9d, 0xf3, 0xb3,
  0xa0, 0xaa, 0x3a, 0xd6, 0x9c, 0x81, 0x98, 0x14, 0xbf, 0x95, 0x32, 0xd2,
  0x2a, 0x49, 0xb2, 0x06, 0x57, 0xea, 0x81, 0xfa, 0x32, 0xec, 0x85, 0x6f,
  0x9c, 0xdf, 0x1a, 0xb8, 0x27, 0x58, 0x1c, 0x17, 0x7b, 0xca, 0x3e, 0x49,
  0x24, 0xcf, 0x55, 0xe7, 0x8e, 0xfe, 0xff, 0xff, 0x04, 0x00, 0x00, 0x00,
  0x40, 0x00, 0x00, 0x00, 0x92, 0xff, 0xff, 0xff, 0x7a, 0x00, 0x00, 0x00,
  0x20, 0xff, 0xff, 0xff, 0xa1, 0x00, 0x00, 0x00, 0xf1, 0x00, 0x00, 0x00,
  0xb8, 0xfe, 0xff, 0xff, 0x96, 0x00, 0x00, 0x00, 0xa3, 0x01, 0x00, 0x00,
  0xc7, 0x00, 0x00, 0x00, 0x69, 0x01, 0x00, 0x00, 0xad, 0x01, 0x00, 0x00,
  0x0d, 0x00, 0x00, 0x00, 0x1b, 0x00, 0x00, 0x00, 0x21, 0x01, 0x00, 0x00,
  0xe8, 0x00, 0x00, 0x00, 0xa9, 0x01, 0x00, 0x00, 0xda, 0xfe, 0xff, 0xff,
  0x04, 0x00, 0x00, 0x00, 0x60, 0x00, 0x00, 0x00, 0x22, 0x01, 0xbc, 0x81,
  0x5d, 0xfb, 0xbc, 0xc5, 0xe8, 0x22, 0x7e, 0x64, 0xcd, 0xbe, 0x61, 0x9d,
  0xa8, 0xd7, 0x7f, 0x33, 0xc8, 0x0b, 0x57, 0x66, 0x6f, 0xbf, 0x41, 0x6a,
  0xd3, 0x5b, 0xbf, 0xc9, 0x1c, 0xcc, 0xf2, 0x47, 0x95, 0x4f, 0xf4, 0x7f,
  0x3f, 0x2c, 0xef, 0x3e, 0x38, 0x8f, 0xe0, 0x6e, 0x1e, 0x15, 0x1a, 0x51,
  0x5c, 0x0e, 0xeb, 0x81, 0xe0, 0xce, 0xac, 0x42, 0xd5, 0x41, 0xa9, 0xaa,
  0xa1, 0x0f, 0x27, 0x63, 0xeb, 0x2c, 0xa4, 0x81, 0x51, 0x4a, 0x1d, 0xd2,
  0xd0, 0xda, 0x19, 0xf4, 0x31, 0x21, 0xf1, 0x8a, 0x49, 0xf6, 0x5f, 0x81,
  0xc4, 0xda, 0x1e, 0x39, 0x3c, 0x96, 0xb4, 0x72, 0x46, 0xff, 0xff, 0xff,
  0x04, 0x00, 0x00, 0x00, 0x18, 0x00, 0x00, 0x00, 0x4c, 0x00, 0x00, 0x00,
  0xb2, 0xff, 0xff, 0xff, 0x54, 0x00, 0x00, 0x00, 0x34, 0x00, 0x00, 0x00,
  0x98, 0xff, 0xff, 0xff, 0xc0, 0xff, 0xff, 0xff, 0x38, 0xff, 0xff, 0xff,
  0x3c, 0xff, 0xff, 0xff, 0x0f, 0x00, 0x00, 0x00, 0x4d, 0x4c, 0x49, 0x52,
  0x20, 0x43, 0x6f, 0x6e, 0x76, 0x65, 0x72, 0x74, 0x65, 0x64, 0x2e, 0x00,
  0x01, 0x00, 0x00, 0x00, 0x14, 0x00, 0x00, 0x00, 0x00, 0x00, 0x0e, 0x00,
  0x18, 0x00, 0x14, 0x00, 0x10, 0x00, 0x0c, 0x00, 0x08, 0x00, 0x04, 0x00,
  0x0e, 0x00, 0x00, 0x00, 0x14, 0x00, 0x00, 0x00, 0x1c, 0x00, 0x00, 0x00,
  0x38, 0x01, 0x00, 0x00, 0x3c, 0x01, 0x00, 0x00, 0x40, 0x01, 0x00, 0x00,
  0x04, 0x00, 0x00, 0x00, 0x6d, 0x61, 0x69, 0x6e, 0x00, 0x00, 0x00, 0x00,
  0x04, 0x00, 0x00, 0x00, 0xe0, 0x00, 0x00, 0x00, 0x98, 0x00, 0x00, 0x00,
  0x50, 0x00, 0x00, 0x00, 0x14, 0x00, 0x00, 0x00, 0x00, 0x00, 0x0e, 0x00,
  0x1a, 0x00, 0x14, 0x00, 0x10, 0x00, 0x0c, 0x00, 0x0b, 0x00, 0x04, 0x00,
  0x0e, 0x00, 0x00, 0x00, 0x1c, 0x00, 0x00, 0x00, 0x00, 0x00, 0x00, 0x09,
  0x1c, 0x00, 0x00, 0x00, 0x20, 0x00, 0x00, 0x00, 0x01, 0x00, 0x00, 0x00,
  0x00, 0x00, 0x06, 0x00, 0x08, 0x00, 0x04, 0x00, 0x06, 0x00, 0x00, 0x00,
  0x00, 0x00, 0x80, 0x3f, 0x01, 0x00, 0x00, 0x00, 0x0a, 0x00, 0x00, 0x00,
  0x01, 0x00, 0x00, 0x00, 0x09, 0x00, 0x00, 0x00, 0xca, 0xff, 0xff, 0xff,
  0x14, 0x00, 0x00, 0x00, 0x00, 0x00, 0x00, 0x08, 0x10, 0x00, 0x00, 0x00,
  0x14, 0x00, 0x00, 0x00, 0x04, 0x00, 0x04, 0x00, 0x04, 0x00, 0x00, 0x00,
  0x01, 0x00, 0x00, 0x00, 0x09, 0x00, 0x00, 0x00, 0x03, 0x00, 0x00, 0x00,
  0x08, 0x00, 0x00, 0x00, 0x02, 0x00, 0x00, 0x00, 0x01, 0x00, 0x00, 0x00,
  0x00, 0x00, 0x0e, 0x00, 0x14, 0x00, 0x00, 0x00, 0x10, 0x00, 0x0c, 0x00,
  0x0b, 0x00, 0x04, 0x00, 0x0e, 0x00, 0x00, 0x00, 0x10, 0x00, 0x00, 0x00,
  0x00, 0x00, 0x00, 0x08, 0x10, 0x00, 0x00, 0x00, 0x14, 0x00, 0x00, 0x00,
  0xba, 0xff, 0xff, 0xff, 0x00, 0x00, 0x00, 0x01, 0x01, 0x00, 0x00, 0x00,
  0x08, 0x00, 0x00, 0x00, 0x03, 0x00, 0x00, 0x00, 0x07, 0x00, 0x00, 0x00,
  0x04, 0x00, 0x00, 0x00, 0x03, 0x00, 0x00, 0x00, 0x00, 0x00, 0x0e, 0x00,
  0x16, 0x00, 0x00, 0x00, 0x10, 0x00, 0x0c, 0x00, 0x0b, 0x00, 0x04, 0x00,
  0x0e, 0x00, 0x00, 0x00, 0x18, 0x00, 0x00, 0x00, 0x00, 0x00, 0x00, 0x08,
  0x18, 0x00, 0x00, 0x00, 0x1c, 0x00, 0x00, 0x00, 0x00, 0x00, 0x06, 0x00,
  0x08, 0x00, 0x07, 0x00, 0x06, 0x00, 0x00, 0x00, 0x00, 0x00, 0x00, 0x01,
  0x01, 0x00, 0x00, 0x00, 0x07, 0x00, 0x00, 0x00, 0x03, 0x00, 0x00, 0x00,
  0x00, 0x00, 0x00, 0x00, 0x06, 0x00, 0x00, 0x00, 0x05, 0x00, 0x00, 0x00,
  0x01, 0x00, 0x00, 0x00, 0x0a, 0x00, 0x00, 0x00, 0x01, 0x00, 0x00, 0x00,
  0x00, 0x00, 0x00, 0x00, 0x0b, 0x00, 0x00, 0x00, 0x00, 0x0a, 0x00, 0x00,
  0x48, 0x09, 0x00, 0x00, 0x8c, 0x08, 0x00, 0x00, 0x78, 0x07, 0x00, 0x00,
  0x5c, 0x06, 0x00, 0x00, 0x88, 0x04, 0x00, 0x00, 0xac, 0x02, 0x00, 0x00,
  0xe8, 0x01, 0x00, 0x00, 0x24, 0x01, 0x00, 0x00, 0x80, 0x00, 0x00, 0x00,
  0x04, 0x00, 0x00, 0x00, 0x42, 0xf6, 0xff, 0xff, 0x00, 0x00, 0x00, 0x01,
  0x18, 0x00, 0x00, 0x00, 0x20, 0x00, 0x00, 0x00, 0x3c, 0x00, 0x00, 0x00,
  0x0b, 0x00, 0x00, 0x00, 0x00, 0x00, 0x00, 0x09, 0x50, 0x00, 0x00, 0x00,
  0x02, 0x00, 0x00, 0x00, 0xff, 0xff, 0xff, 0xff, 0x06, 0x00, 0x00, 0x00,
  0x2c, 0xf6, 0xff, 0xff, 0x08, 0x00, 0x00, 0x00, 0x10, 0x00, 0x00, 0x00,
  0x01, 0x00, 0x00, 0x00, 0x80, 0xff, 0xff, 0xff, 0xff, 0xff, 0xff, 0xff,
  0x01, 0x00, 0x00, 0x00, 0x00, 0x00, 0x80, 0x3b, 0x1b, 0x00, 0x00, 0x00,
  0x53, 0x74, 0x61, 0x74, 0x65, 0x66, 0x75, 0x6c, 0x50, 0x61, 0x72, 0x74,
  0x69, 0x74, 0x69, 0x6f, 0x6e, 0x65, 0x64, 0x43, 0x61, 0x6c, 0x6c, 0x5f,
  0x31, 0x3a, 0x30, 0x00, 0x02, 0x00, 0x00, 0x00, 0x01, 0x00, 0x00, 0x00,
  0x06, 0x00, 0x00, 0x00, 0xba, 0xf6, 0xff, 0xff, 0x00, 0x00, 0x00, 0x01,
  0x18, 0x00, 0x00, 0x00, 0x20, 0x00, 0x00, 0x00, 0x3c, 0x00, 0x00, 0x00,
  0x0a, 0x00, 0x00, 0x00, 0x00, 0x00, 0x00, 0x09, 0x78, 0x00, 0x00, 0x00,
  0x02, 0x00, 0x00, 0x00, 0xff, 0xff, 0xff, 0xff, 0x06, 0x00, 0x00, 0x00,
  0xa4, 0xf6, 0xff, 0xff, 0x08, 0x00, 0x00, 0x00, 0x10, 0x00, 0x00, 0x00,
  0x01, 0x00, 0x00, 0x00, 0xfe, 0xff, 0xff, 0xff, 0xff, 0xff, 0xff, 0xff,
  0x01, 0x00, 0x00, 0x00, 0x19, 0x17, 0x52, 0x3e, 0x42, 0x00, 0x00, 0x00,
  0x73, 0x65, 0x71, 0x75, 0x65, 0x6e, 0x74, 0x69, 0x61, 0x6c, 0x5f, 0x34,
  0x5f, 0x31, 0x2f, 0x64, 0x65, 0x6e, 0x73, 0x65, 0x5f, 0x31, 0x34, 0x5f,
  0x31, 0x2f, 0x4d, 0x61, 0x74, 0x4d, 0x75, 0x6c, 0x3b, 0x73, 0x65, 0x71,
  0x75, 0x65, 0x6e, 0x74, 0x69, 0x61, 0x6c, 0x5f, 0x34, 0x5f, 0x31, 0x2f,
  0x64, 0x65, 0x6e, 0x73, 0x65, 0x5f, 0x31, 0x34, 0x5f, 0x31, 0x2f, 0x42,
  0x69, 0x61, 0x73, 0x41, 0x64, 0x64, 0x00, 0x00, 0x02, 0x00, 0x00, 0x00,
  0x01, 0x00, 0x00, 0x00, 0x06, 0x00, 0x00, 0x00, 0x5a, 0xf7, 0xff, 0xff,
  0x00, 0x00, 0x00, 0x01, 0x18, 0x00, 0x00, 0x00, 0x20, 0x00, 0x00, 0x00,
  0x3c, 0x00, 0x00, 0x00, 0x09, 0x00, 0x00, 0x00, 0x00, 0x00, 0x00, 0x09,
  0x98, 0x00, 0x00, 0x00, 0x02, 0x00, 0x00, 0x00, 0xff, 0xff, 0xff, 0xff,
  0x10, 0x00, 0x00, 0x00, 0x44, 0xf7, 0xff, 0xff, 0x08, 0x00, 0x00, 0x00,
  0x10, 0x00, 0x00, 0x00, 0x01, 0x00, 0x00, 0x00, 0x80, 0xff, 0xff, 0xff,
  0xff, 0xff, 0xff, 0xff, 0x01, 0x00, 0x00, 0x00, 0x2a, 0xdb, 0xae, 0x3d,
  0x61, 0x00, 0x00, 0x00, 0x73, 0x65, 0x71, 0x75, 0x65, 0x6e, 0x74, 0x69,
  0x61, 0x6c, 0x5f, 0x34, 0x5f, 0x31, 0x2f, 0x64, 0x65, 0x6e, 0x73, 0x65,
  0x5f, 0x31, 0x33, 0x5f, 0x31, 0x2f, 0x4d, 0x61, 0x74, 0x4d, 0x75, 0x6c,
  0x3b, 0x73, 0x65, 0x71, 0x75, 0x65, 0x6e, 0x74, 0x69, 0x61, 0x6c, 0x5f,
  0x34, 0x5f, 0x31, 0x2f, 0x64, 0x65, 0x6e, 0x73, 0x65, 0x5f, 0x31, 0x33,
  0x5f, 0x31, 0x2f, 0x52, 0x65, 0x6c, 0x75, 0x3b, 0x73, 0x65, 0x71, 0x75,
  0x65, 0x6e, 0x74, 0x69, 0x61, 0x6c, 0x5f, 0x34, 0x5f, 0x31, 0x2f, 0x64,
  0x65, 0x6e, 0x73, 0x65, 0x5f, 0x31, 0x33, 0x5f, 0x31, 0x2f, 0x42, 0x69,
  0x61, 0x73, 0x41, 0x64, 0x64, 0x00, 0x00, 0x00, 0x02, 0x00, 0x00, 0x00,
  0x01, 0x00, 0x00, 0x00, 0x10, 0x00, 0x00, 0x00, 0x1a, 0xf8, 0xff, 0xff,
  0x00, 0x00, 0x00, 0x01, 0x18, 0x00, 0x00, 0x00, 0x20, 0x00, 0x00, 0x00,
  0x3c, 0x00, 0x00, 0x00, 0x08, 0x00, 0x00, 0x00, 0x00, 0x00, 0x00, 0x09,
  0x98, 0x00, 0x00, 0x00, 0x02, 0x00, 0x00, 0x00, 0xff, 0xff, 0xff, 0xff,
  0x20, 0x00, 0x00, 0x00, 0x04, 0xf8, 0xff, 0xff, 0x08, 0x00, 0x00, 0x00,
  0x10, 0x00, 0x00, 0x00, 0x01, 0x00, 0x00, 0x00, 0x80, 0xff, 0xff, 0xff,
  0xff, 0xff, 0xff, 0xff, 0x01, 0x00, 0x00, 0x00, 0x10, 0x1f, 0x49, 0x3d,
  0x61, 0x00, 0x00, 0x00, 0x73, 0x65, 0x71, 0x75, 0x65, 0x6e, 0x74, 0x69,
  0x61, 0x6c, 0x5f, 0x34, 0x5f, 0x31, 0x2f, 0x64, 0x65, 0x6e, 0x73, 0x65,
  0x5f, 0x31, 0x32, 0x5f, 0x31, 0x2f, 0x4d, 0x61, 0x74, 0x4d, 0x75, 0x6c,
  0x3b, 0x73, 0x65, 0x71, 0x75, 0x65, 0x6e, 0x74, 0x69, 0x61, 0x6c, 0x5f,
  0x34, 0x5f, 0x31, 0x2f, 0x64, 0x65, 0x6e, 0x73, 0x65, 0x5f, 0x31, 0x32,
  0x5f, 0x31, 0x2f, 0x52, 0x65, 0x6c, 0x75, 0x3b, 0x73, 0x65, 0x71, 0x75,
  0x65, 0x6e, 0x74, 0x69, 0x61, 0x6c, 0x5f, 0x34, 0x5f, 0x31, 0x2f, 0x64,
  0x65, 0x6e, 0x73, 0x65, 0x5f, 0x31, 0x32, 0x5f, 0x31, 0x2f, 0x42, 0x69,
  0x61, 0x73, 0x41, 0x64, 0x64, 0x00, 0x00, 0x00, 0x02, 0x00, 0x00, 0x00,
  0x01, 0x00, 0x00, 0x00, 0x20, 0x00, 0x00, 0x00, 0x8e, 0xf9, 0xff, 0xff,
  0x00, 0x00, 0x00, 0x01, 0x14, 0x00, 0x00, 0x00, 0xa8, 0x01, 0x00, 0x00,
  0x07, 0x00, 0x00, 0x00, 0x00, 0x00, 0x00, 0x09, 0xb4, 0x01, 0x00, 0x00,
  0xb4, 0xf8, 0xff, 0xff, 0x08, 0x00, 0x00, 0x00, 0x0c, 0x01, 0x00, 0x00,
  0x20, 0x00, 0x00, 0x00, 0x00, 0x00, 0x00, 0x00, 0x00, 0x00, 0x00, 0x00,
  0x00, 0x00, 0x00, 0x00, 0x00, 0x00, 0x00, 0x00, 0x00, 0x00, 0x00, 0x00,
  0x00, 0x00, 0x00, 0x00, 0x00, 0x00, 0x00, 0x00, 0x00, 0x00, 0x00, 0x00,
  0x00, 0x00, 0x00, 0x00, 0x00, 0x00, 0x00, 0x00, 0x00, 0x00, 0x00, 0x00,
  0x00, 0x00, 0x00, 0x00, 0x00, 0x00, 0x00, 0x00, 0x00, 0x00, 0x00, 0x00,
  0x00, 0x00, 0x00, 0x00, 0x00, 0x00, 0x00, 0x00, 0x00, 0x00, 0x00, 0x00,
  0x00, 0x00, 0x00, 0x00, 0x00, 0x00, 0x00, 0x00, 0x00, 0x00, 0x00, 0x00,
  0x00, 0x00, 0x00, 0x00, 0x00, 0x00, 0x00, 0x00, 0x00, 0x00, 0x00, 0x00,
  0x00, 0x00, 0x00, 0x00, 0x00, 0x00, 0x00, 0x00, 0x00, 0x00, 0x00, 0x00,
  0x00, 0x00, 0x00, 0x00, 0x00, 0x00, 0x00, 0x00, 0x00, 0x00, 0x00, 0x00,
  0x00, 0x00, 0x00, 0x00, 0x00, 0x00, 0x00, 0x00, 0x00, 0x00, 0x00, 0x00,
  0x00, 0x00, 0x00, 0x00, 0x00, 0x00, 0x00, 0x00, 0x00, 0x00, 0x00, 0x00,
  0x00, 0x00, 0x00, 0x00, 0x00, 0x00, 0x00, 0x00, 0x00, 0x00, 0x00, 0x00,
  0x00, 0x00, 0x00, 0x00, 0x00, 0x00, 0x00, 0x00, 0x00, 0x00, 0x00, 0x00,
  0x00, 0x00, 0x00, 0x00, 0x00, 0x00, 0x00, 0x00, 0x00, 0x00, 0x00, 0x00,
  0x00, 0x00, 0x00, 0x00, 0x00, 0x00, 0x00, 0x00, 0x00, 0x00, 0x00, 0x00,
  0x00, 0x00, 0x00, 0x00, 0x00, 0x00, 0x00, 0x00, 0x00, 0x00, 0x00, 0x00,
  0x00, 0x00, 0x00, 0x00, 0x00, 0x00, 0x00, 0x00, 0x00, 0x00, 0x00, 0x00,
  0x00, 0x00, 0x00, 0x00, 0x00, 0x00, 0x00, 0x00, 0x00, 0x00, 0x00, 0x00,
  0x00, 0x00, 0x00, 0x00, 0x00, 0x00, 0x00, 0x00, 0x00, 0x00, 0x00, 0x00,
  0x00, 0x00, 0x00, 0x00, 0x00, 0x00, 0x00, 0x00, 0x00, 0x00, 0x00, 0x00,
  0x00, 0x00, 0x00, 0x00, 0x00, 0x00, 0x00, 0x00, 0x00, 0x00, 0x00, 0x00,
  0x20, 0x00, 0x00, 0x00, 0x35, 0xe1, 0x14, 0x3b, 0xe8, 0xd3, 0x44, 0x3b,
  0x13, 0xfb, 0x0a, 0x3b, 0xd5, 0xad, 0x21, 0x3b, 0x37, 0x25, 0x35, 0x3b,
  0x5d, 0xab, 0x12, 0x3b, 0xc4, 0xbe, 0x2e, 0x3b, 0x56, 0x81, 0x2e, 0x3b,
  0xfb, 0xce, 0x37, 0x3b, 0xbf, 0x09, 0x09, 0x3b, 0xc1, 0xae, 0x22, 0x3b,
  0xd8, 0x70, 0xf9, 0x3a, 0x13, 0x73, 0xd5, 0x3a, 0x2a, 0x39, 0x35, 0x3b,
  0x58, 0xe0, 0xf0, 0x3a, 0x9f, 0xc5, 0x17, 0x3b, 0x48, 0xd0, 0x26, 0x3b,
  0x1c, 0x11, 0x12, 0x3b, 0xc5, 0x03, 0x0a, 0x3b, 0xc7, 0x03, 0x10, 0x3b,
  0xa2, 0x8c, 0x03, 0x3b, 0x2f, 0xcc, 0x0a, 0x3b, 0x4b, 0x0a, 0x10, 0x3b,
  0x5f, 0x3c, 0x11, 0x3b, 0x23, 0xb9, 0x18, 0x3b, 0xc4, 0x40, 0x15, 0x3b,
  0x3d, 0x93, 0x27, 0x3b, 0x5b, 0xf1, 0x1d, 0x3b, 0xb5, 0x01, 0x25, 0x3b,
  0x9d, 0x50, 0x2a, 0x3b, 0x21, 0xf1, 0x11, 0x3b, 0xbe, 0x51, 0x30, 0x3b,
  0x12, 0x00, 0x00, 0x00, 0x74, 0x66, 0x6c, 0x2e, 0x70, 0x73, 0x65, 0x75,
  0x64, 0x6f, 0x5f, 0x71, 0x63, 0x6f, 0x6e, 0x73, 0x74, 0x35, 0x00, 0x00,
  0x02, 0x00, 0x00, 0x00, 0x20, 0x00, 0x00, 0x00, 0x96, 0x00, 0x00, 0x00,
  0x66, 0xfb, 0xff, 0xff, 0x00, 0x00, 0x00, 0x01, 0x14, 0x00, 0x00, 0x00,
  0xa4, 0x01, 0x00, 0x00, 0x06, 0x00, 0x00, 0x00, 0x00, 0x00, 0x00, 0x02,
  0xb0, 0x01, 0x00, 0x00, 0x8c, 0xfa, 0xff, 0xff, 0x08, 0x00, 0x00, 0x00,
  0x08, 0x01, 0x00, 0x00, 0x20, 0x00, 0x00, 0x00, 0x00, 0x00, 0x00, 0x00,
  0x00, 0x00, 0x00, 0x00, 0x00, 0x00, 0x00, 0x00, 0x00, 0x00, 0x00, 0x00,
  0x00, 0x00, 0x00, 0x00, 0x00, 0x00, 0x00, 0x00, 0x00, 0x00, 0x00, 0x00,
  0x00, 0x00, 0x00, 0x00, 0x00, 0x00, 0x00, 0x00, 0x00, 0x00, 0x00, 0x00,
  0x00, 0x00, 0x00, 0x00, 0x00, 0x00, 0x00, 0x00, 0x00, 0x00, 0x00, 0x00,
  0x00, 0x00, 0x00, 0x00, 0x00, 0x00, 0x00, 0x00, 0x00, 0x00, 0x00, 0x00,
  0x00, 0x00, 0x00, 0x00, 0x00, 0x00, 0x00, 0x00, 0x00, 0x00, 0x00, 0x00,
  0x00, 0x00, 0x00, 0x00, 0x00, 0x00, 0x00, 0x00, 0x00, 0x00, 0x00, 0x00,
  0x00, 0x00, 0x00, 0x00, 0x00, 0x00, 0x00, 0x00, 0x00, 0x00, 0x00, 0x00,
  0x00, 0x00, 0x00, 0x00, 0x00, 0x00, 0x00, 0x00, 0x00, 0x00, 0x00, 0x00,
  0x00, 0x00, 0x00, 0x00, 0x00, 0x00, 0x00, 0x00, 0x00, 0x00, 0x00, 0x00,
  0x00, 0x00, 0x00, 0x00, 0x00, 0x00, 0x00, 0x00, 0x00, 0x00, 0x00, 0x00,
  0x00, 0x00, 0x00, 0x00, 0x00, 0x00, 0x00, 0x00, 0x00, 0x00, 0x00, 0x00,
  0x00, 0x00, 0x00, 0x00, 0x00, 0x00, 0x00, 0x00, 0x00, 0x00, 0x00, 0x00,
  0x00, 0x00, 0x00, 0x00, 0x00, 0x00, 0x00, 0x00, 0x00, 0x00, 0x00, 0x00,
  0x00, 0x00, 0x00, 0x00, 0x00, 0x00, 0x00, 0x00, 0x00, 0x00, 0x00, 0x00,
  0x00, 0x00, 0x00, 0x00, 0x00, 0x00, 0x00, 0x00, 0x00, 0x00, 0x00, 0x00,
  0x00, 0x00, 0x00, 0x00, 0x00, 0x00, 0x00, 0x00, 0x00, 0x00, 0x00, 0x00,
  0x00, 0x00, 0x00, 0x00, 0x00, 0x00, 0x00, 0x00, 0x00, 0x00, 0x00, 0x00,
  0x00, 0x00, 0x00, 0x00, 0x00, 0x00, 0x00, 0x00, 0x00, 0x00, 0x00, 0x00,
  0x00, 0x00, 0x00, 0x00, 0x00, 0x00, 0x00, 0x00, 0x00, 0x00, 0x00, 0x00,
  0x00, 0x00, 0x00, 0x00, 0x00, 0x00, 0x00, 0x00, 0x00, 0x00, 0x00, 0x00,
  0x20, 0x00, 0x00, 0x00, 0x01, 0x72, 0x95, 0x38, 0x55, 0x93, 0xc5, 0x38,
  0x3e, 0x82, 0x8b, 0x38, 0x13, 0x4b, 0xa2, 0x38, 0x64, 0xd5, 0xb5, 0x38,
  0x02, 0x3a, 0x93, 0x38, 0xb7, 0x68, 0xaf, 0x38, 0x0e, 0x2b, 0xaf, 0x38,
  0xbf, 0x81, 0xb8, 0x38, 0x06, 0x8f, 0x89, 0x38, 0xf9, 0x4c, 0xa3, 0x38,
  0x71, 0x63, 0x7a, 0x38, 0xab, 0x42, 0x56, 0x38, 0x6a, 0xe9, 0xb5, 0x38,
  0x9d, 0xca, 0x71, 0x38, 0x3b, 0x59, 0x98, 0x38, 0x85, 0x72, 0xa7, 0x38,
  0x2b, 0x9f, 0x92, 0x38, 0xff, 0x89, 0x8a, 0x38, 0xd7, 0x8f, 0x90, 0x38,
  0x93, 0x0c, 0x84, 0x38, 0x2c, 0x53, 0x8b, 0x38, 0x62, 0x96, 0x90, 0x38,
  0x9f, 0xc9, 0x91, 0x38, 0xab, 0x4d, 0x99, 0x38, 0xec, 0xd1, 0x95, 0x38,
  0x37, 0x36, 0xa8, 0x38, 0xf7, 0x8a, 0x9e, 0x38, 0x30, 0xa2, 0xa5, 0x38,
  0x41, 0xf6, 0xaa, 0x38, 0x11, 0x7f, 0x92, 0x38, 0x39, 0xfd, 0xb0, 0x38,
  0x12, 0x00, 0x00, 0x00, 0x74, 0x66, 0x6c, 0x2e, 0x70, 0x73, 0x65, 0x75,
  0x64, 0x6f, 0x5f, 0x71, 0x63, 0x6f, 0x6e, 0x73, 0x74, 0x34, 0x00, 0x00,
  0x01, 0x00, 0x00, 0x00, 0x20, 0x00, 0x00, 0x00, 0x36, 0xfd, 0xff, 0xff,
  0x00, 0x00, 0x00, 0x01, 0x14, 0x00, 0x00, 0x00, 0xe8, 0x00, 0x00, 0x00,
  0x05, 0x00, 0x00, 0x00, 0x00, 0x00, 0x00, 0x09, 0xf4, 0x00, 0x00, 0x00,
  0x5c, 0xfc, 0xff, 0xff, 0x08, 0x00, 0x00, 0x00, 0x8c, 0x00, 0x00, 0x00,
  0x10, 0x00, 0x00, 0x00, 0x00, 0x00, 0x00, 0x00, 0x00, 0x00, 0x00, 0x00,
  0x00, 0x00, 0x00, 0x00, 0x00, 0x00, 0x00, 0x00, 0x00, 0x00, 0x00, 0x00,
  0x00, 0x00, 0x00, 0x00, 0x00, 0x00, 0x00, 0x00, 0x00, 0x00, 0x00, 0x00,
  0x00, 0x00, 0x00, 0x00, 0x00, 0x00, 0x00, 0x00, 0x00, 0x00, 0x00, 0x00,
  0x00, 0x00, 0x00, 0x00, 0x00, 0x00, 0x00, 0x00, 0x00, 0x00, 0x00, 0x00,
  0x00, 0x00, 0x00, 0x00, 0x00, 0x00, 0x00, 0x00, 0x00, 0x00, 0x00, 0x00,
  0x00, 0x00, 0x00, 0x00, 0x00, 0x00, 0x00, 0x00, 0x00, 0x00, 0x00, 0x00,
  0x00, 0x00, 0x00, 0x00, 0x00, 0x00, 0x00, 0x00, 0x00, 0x00, 0x00, 0x00,
  0x00, 0x00, 0x00, 0x00, 0x00, 0x00, 0x00, 0x00, 0x00, 0x00, 0x00, 0x00,
  0x00, 0x00, 0x00, 0x00, 0x00, 0x00, 0x00, 0x00, 0x00, 0x00, 0x00, 0x00,
  0x00, 0x00, 0x00, 0x00, 0x00, 0x00, 0x00, 0x00, 0x00, 0x00, 0x00, 0x00,
  0x00, 0x00, 0x00, 0x00, 0x10, 0x00, 0x00, 0x00, 0x85, 0x85, 0x26, 0x3b,
  0x16, 0xe4, 0x5b, 0x3b, 0xfd, 0x66, 0x50, 0x3b, 0xb9, 0x5f, 0xa7, 0x3b,
  0x03, 0xa4, 0x7c, 0x3b, 0x8a, 0xc7, 0x3c, 0x3b, 0x1b, 0xb3, 0x66, 0x3b,
  0x8c, 0xa9, 0x88, 0x3b, 0x90, 0x69, 0x8c, 0x3b, 0x22, 0xb0, 0x76, 0x3b,
  0x43, 0xf2, 0x80, 0x3b, 0xad, 0x1c, 0x7c, 0x3b, 0x3c, 0x91, 0x30, 0x3b,
  0x6d, 0x78, 0x80, 0x3b, 0xb9, 0x9d, 0x8b, 0x3b, 0x72, 0x78, 0x6f, 0x3b,
  0x12, 0x00, 0x00, 0x00, 0x74, 0x66, 0x6c, 0x2e, 0x70, 0x73, 0x65, 0x75,
  0x64, 0x6f, 0x5f, 0x71, 0x63, 0x6f, 0x6e, 0x73, 0x74, 0x33, 0x00, 0x00,
  0x02, 0x00, 0x00, 0x00, 0x10, 0x00, 0x00, 0x00, 0x20, 0x00, 0x00, 0x00,
  0x4e, 0xfe, 0xff, 0xff, 0x00, 0x00, 0x00, 0x01, 0x14, 0x00, 0x00, 0x00,
  0xe4, 0x00, 0x00, 0x00, 0x04, 0x00, 0x00, 0x00, 0x00, 0x00, 0x00, 0x02,
  0xf0, 0x00, 0x00, 0x00, 0x74, 0xfd, 0xff, 0xff, 0x08, 0x00, 0x00, 0x00,
  0x88, 0x00, 0x00, 0x00, 0x10, 0x00, 0x00, 0x00, 0x00, 0x00, 0x00, 0x00,
  0x00, 0x00, 0x00, 0x00, 0x00, 0x00, 0x00, 0x00, 0x00, 0x00, 0x00, 0x00,
  0x00, 0x00, 0x00, 0x00, 0x00, 0x00, 0x00, 0x00, 0x00, 0x00, 0x00, 0x00,
  0x00, 0x00, 0x00, 0x00, 0x00, 0x00, 0x00, 0x00, 0x00, 0x00, 0x00, 0x00,
  0x00, 0x00, 0x00, 0x00, 0x00, 0x00, 0x00, 0x00, 0x00, 0x00, 0x00, 0x00,
  0x00, 0x00, 0x00, 0x00, 0x00, 0x00, 0x00, 0x00, 0x00, 0x00, 0x00, 0x00,
  0x00, 0x00, 0x00, 0x00, 0x00, 0x00, 0x00, 0x00, 0x00, 0x00, 0x00, 0x00,
  0x00, 0x00, 0x00, 0x00, 0x00, 0x00, 0x00, 0x00, 0x00, 0x00, 0x00, 0x00,
  0x00, 0x00, 0x00, 0x00, 0x00, 0x00, 0x00, 0x00, 0x00, 0x00, 0x00, 0x00,
  0x00, 0x00, 0x00, 0x00, 0x00, 0x00, 0x00, 0x00, 0x00, 0x00, 0x00, 0x00,
  0x00, 0x00, 0x00, 0x00, 0x00, 0x00, 0x00, 0x00, 0x00, 0x00, 0x00, 0x00,
  0x00, 0x00, 0x00, 0x00, 0x10, 0x00, 0x00, 0x00, 0x0a, 0xd3, 0x02, 0x39,
  0xc4, 0xc0, 0x2c, 0x39, 0x26, 0xba, 0x23, 0x39, 0x77, 0x7e, 0x83, 0x39,
  0x6e, 0x7b, 0x46, 0x39, 0x93, 0x4f, 0x14, 0x39, 0x9e, 0x3e, 0x35, 0x39,
  0x68, 0xbb, 0x56, 0x39, 0xd7, 0x9f, 0x5c, 0x39, 0x39, 0xce, 0x41, 0x39,
  0xb8, 0x9b, 0x4a, 0x39, 0x1b, 0x11, 0x46, 0x39, 0x75, 0xb7, 0x0a, 0x39,
  0x48, 0xdc, 0x49, 0x39, 0x8e, 0x5f, 0x5b, 0x39, 0xa0, 0x22, 0x3c, 0x39,
  0x12, 0x00, 0x00, 0x00, 0x74, 0x66, 0x6c, 0x2e, 0x70, 0x73, 0x65, 0x75,
  0x64, 0x6f, 0x5f, 0x71, 0x63, 0x6f, 0x6e, 0x73, 0x74, 0x32, 0x00, 0x00,
  0x01, 0x00, 0x00, 0x00, 0x10, 0x00, 0x00, 0x00, 0x5e, 0xff, 0xff, 0xff,
  0x00, 0x00, 0x00, 0x01, 0x14, 0x00, 0x00, 0x00, 0x70, 0x00, 0x00, 0x00,
  0x03, 0x00, 0x00, 0x00, 0x00, 0x00, 0x00, 0x09, 0x7c, 0x00, 0x00, 0x00,
  0x84, 0xfe, 0xff, 0xff, 0x08, 0x00, 0x00, 0x00, 0x3c, 0x00, 0x00, 0x00,
  0x06, 0x00, 0x00, 0x00, 0x00, 0x00, 0x00, 0x00, 0x00, 0x00, 0x00, 0x00,
  0x00, 0x00, 0x00, 0x00, 0x00, 0x00, 0x00, 0x00, 0x00, 0x00, 0x00, 0x00,
  0x00, 0x00, 0x00, 0x00, 0x00, 0x00, 0x00, 0x00, 0x00, 0x00, 0x00, 0x00,
  0x00, 0x00, 0x00, 0x00, 0x00, 0x00, 0x00, 0x00, 0x00, 0x00, 0x00, 0x00,
  0x00, 0x00, 0x00, 0x00, 0x00, 0x00, 0x00, 0x00, 0x06, 0x00, 0x00, 0x00,
  0xbc, 0xd5, 0xb2, 0x3b, 0xca, 0x16, 0x97, 0x3b, 0x34, 0x66, 0xbb, 0x3b,
  0x9c, 0x54, 0xc9, 0x3b, 0x3c, 0x5c, 0xb1, 0x3b, 0x2e, 0x17, 0xae, 0x3b,
  0x12, 0x00, 0x00, 0x00, 0x74, 0x66, 0x6c, 0x2e, 0x70, 0x73, 0x65, 0x75,
  0x64, 0x6f, 0x5f, 0x71, 0x63, 0x6f, 0x6e, 0x73, 0x74, 0x31, 0x00, 0x00,
  0x02, 0x00, 0x00, 0x00, 0x06, 0x00, 0x00, 0x00, 0x10, 0x00, 0x00, 0x00,
  0x00, 0x00, 0x16, 0x00, 0x1c, 0x00, 0x18, 0x00, 0x17, 0x00, 0x10, 0x00,
  0x0c, 0x00, 0x08, 0x00, 0x00, 0x00, 0x00, 0x00, 0x00, 0x00, 0x07, 0x00,
  0x16, 0x00, 0x00, 0x00, 0x00, 0x00, 0x00, 0x01, 0x14, 0x00, 0x00, 0x00,
  0x70, 0x00, 0x00, 0x00, 0x02, 0x00, 0x00, 0x00, 0x00, 0x00, 0x00, 0x02,
  0x7c, 0x00, 0x00, 0x00, 0x3c, 0xff, 0xff, 0xff, 0x08, 0x00, 0x00, 0x00,
  0x3c, 0x00, 0x00, 0x00, 0x06, 0x00, 0x00, 0x00, 0x00, 0x00, 0x00, 0x00,
  0x00, 0x00, 0x00, 0x00, 0x00, 0x00, 0x00, 0x00, 0x00, 0x00, 0x00, 0x00,
  0x00, 0x00, 0x00, 0x00, 0x00, 0x00, 0x00, 0x00, 0x00, 0x00, 0x00, 0x00,
  0x00, 0x00, 0x00, 0x00, 0x00, 0x00, 0x00, 0x00, 0x00, 0x00, 0x00, 0x00,
  0x00, 0x00, 0x00, 0x00, 0x00, 0x00, 0x00, 0x00, 0x00, 0x00, 0x00, 0x00,
  0x06, 0x00, 0x00, 0x00, 0xc0, 0x4c, 0xf4, 0x39, 0xad, 0x65, 0xce, 0x39,
  0xcd, 0xff, 0xff, 0x39, 0xde, 0x83, 0x09, 0x3a, 0x10, 0x49, 0xf2, 0x39,
  0x97, 0xd1, 0xed, 0x39, 0x11, 0x00, 0x00, 0x00, 0x74, 0x66, 0x6c, 0x2e,
  0x70, 0x73, 0x65, 0x75, 0x64, 0x6f, 0x5f, 0x71, 0x63, 0x6f, 0x6e, 0x73,
  0x74, 0x00, 0x00, 0x00, 0x01, 0x00, 0x00, 0x00, 0x06, 0x00, 0x00, 0x00,
  0x00, 0x00, 0x16, 0x00, 0x20, 0x00, 0x1c, 0x00, 0x1b, 0x00, 0x14, 0x00,
  0x10, 0x00, 0x0c, 0x00, 0x00, 0x00, 0x00, 0x00, 0x08, 0x00, 0x07, 0x00,
  0x16, 0x00, 0x00, 0x00, 0x00, 0x00, 0x00, 0x01, 0x18, 0x00, 0x00, 0x00,
  0x2c, 0x00, 0x00, 0x00, 0x4c, 0x00, 0x00, 0x00, 0x01, 0x00, 0x00, 0x00,
  0x00, 0x00, 0x00, 0x09, 0x68, 0x00, 0x00, 0x00, 0x02, 0x00, 0x00, 0x00,
  0xff, 0xff, 0xff, 0xff, 0x96, 0x00, 0x00, 0x00, 0x0c, 0x00, 0x0c, 0x00,
  0x00, 0x00, 0x00, 0x00, 0x08, 0x00, 0x04, 0x00, 0x0c, 0x00, 0x00, 0x00,
  0x08, 0x00, 0x00, 0x00, 0x14, 0x00, 0x00, 0x00, 0x01, 0x00, 0x00, 0x00,
  0xff, 0xff, 0xff, 0xff, 0xff, 0xff, 0xff, 0xff, 0x00, 0x00, 0x00, 0x00,
  0x01, 0x00, 0x00, 0x00, 0x7d, 0x7c, 0x00, 0x3d, 0x21, 0x00, 0x00, 0x00,
  0x73, 0x65, 0x72, 0x76, 0x69, 0x6e, 0x67, 0x5f, 0x64, 0x65, 0x66, 0x61,
  0x75, 0x6c, 0x74, 0x5f, 0x6b, 0x65, 0x72, 0x61, 0x73, 0x5f, 0x74, 0x65,
  0x6e, 0x73, 0x6f, 0x72, 0x5f, 0x31, 0x39, 0x3a, 0x30, 0x00, 0x00, 0x00,
  0x02, 0x00, 0x00, 0x00, 0x01, 0x00, 0x00, 0x00, 0x96, 0x00, 0x00, 0x00,
  0x02, 0x00, 0x00, 0x00, 0x24, 0x00, 0x00, 0x00, 0x04, 0x00, 0x00, 0x00,
  0xf0, 0xff, 0xff, 0xff, 0x19, 0x00, 0x00, 0x00, 0x02, 0x00, 0x00, 0x00,
  0x00, 0x00, 0x00, 0x19, 0x0c, 0x00, 0x10, 0x00, 0x0f, 0x00, 0x00, 0x00,
  0x08, 0x00, 0x04, 0x00, 0x0c, 0x00, 0x00, 0x00, 0x09, 0x00, 0x00, 0x00,
  0x04, 0x00, 0x00, 0x00, 0x00, 0x00, 0x00, 0x09
};
const int g_model_len = 9344;
